node {
  name: "mul_13/y"
  op: "Const"
  attr {
    key: "dtype"
    value {
      type: DT_FLOAT
    }
  }
  attr {
    key: "value"
    value {
      tensor {
        dtype: DT_FLOAT
        tensor_shape {
        }
        float_val: 0.5
      }
    }
  }
}
node {
  name: "alpha7"
  op: "Const"
  attr {
    key: "dtype"
    value {
      type: DT_FLOAT
    }
  }
  attr {
    key: "value"
    value {
      tensor {
        dtype: DT_FLOAT
        tensor_shape {
          dim {
            size: 56
          }
        }
        tensor_content: "0\323\000>J[k=\235h,<4A\023>\316\303\320=E\212\354=l\"\r>o\212\004>\26617?\026;<=\373\271m\274\226\344\010>1\001\355=]\304\031>\235\370{=&\363\206=D\'\233=\353\017\354\275\214d\231=\206e\353<TQ\340=+\216\321\275\023E\340=6\010\007>]\000\374=]sE\276\256\252\004>c\347\023>\376\334\324=\315\307\313=v\305\363=\230\356\200\275\345#3\275\233\230\323=p^R=\310\016\242=\267O\275=h\274\243\275\n\007\002>X\214\021>\263|\250=,\rf>\262\370\264=\224I\014>\310\211\372=Y\003\357=\241gb<\342\241\272=K&\327=\357\033\n>\324(\201=\256\340\002></\255=\203g\007>\373\245\024>\310r\251="
      }
    }
  }
}
node {
  name: "mul_11/y"
  op: "Const"
  attr {
    key: "dtype"
    value {
      type: DT_FLOAT
    }
  }
  attr {
    key: "value"
    value {
      tensor {
        dtype: DT_FLOAT
        tensor_shape {
        }
        float_val: 0.5
      }
    }
  }
}
node {
  name: "alpha6"
  op: "Const"
  attr {
    key: "dtype"
    value {
      type: DT_FLOAT
    }
  }
  attr {
    key: "value"
    value {
      tensor {
        dtype: DT_FLOAT
        tensor_shape {
          dim {
            size: 12
          }
        }
        tensor_content: "}*\361=\027\231\306\275\034\211\363=\307\327\367=f\323\331=\344\217\000>\204\017Q\276\205=\364=|_\000>\377\220\332=\004\273\023\2766\245\216="
      }
    }
  }
}
node {
  name: "mul_9/y"
  op: "Const"
  attr {
    key: "dtype"
    value {
      type: DT_FLOAT
    }
  }
  attr {
    key: "value"
    value {
      tensor {
        dtype: DT_FLOAT
        tensor_shape {
        }
        float_val: 0.5
      }
    }
  }
}
node {
  name: "alpha5"
  op: "Const"
  attr {
    key: "dtype"
    value {
      type: DT_FLOAT
    }
  }
  attr {
    key: "value"
    value {
      tensor {
        dtype: DT_FLOAT
        tensor_shape {
          dim {
            size: 12
          }
        }
        tensor_content: "?\t\361>[hs>\341\307\005>\320#\376=\212[L>\210}\363=\010|\335>\257B\020?,\023\r>\2579\374=K\245\205>[\305\346="
      }
    }
  }
}
node {
  name: "mul_7/y"
  op: "Const"
  attr {
    key: "dtype"
    value {
      type: DT_FLOAT
    }
  }
  attr {
    key: "value"
    value {
      tensor {
        dtype: DT_FLOAT
        tensor_shape {
        }
        float_val: 0.5
      }
    }
  }
}
node {
  name: "alpha4"
  op: "Const"
  attr {
    key: "dtype"
    value {
      type: DT_FLOAT
    }
  }
  attr {
    key: "value"
    value {
      tensor {
        dtype: DT_FLOAT
        tensor_shape {
          dim {
            size: 12
          }
        }
        tensor_content: "\025?\350>\016%7>\263\222\237>\210\004\000>\274\374\367=\"\320\024>\213\223\341=\2612\337=\000A7>i\253\346=\276\312\306=\257\023\332>"
      }
    }
  }
}
node {
  name: "mul_5/y"
  op: "Const"
  attr {
    key: "dtype"
    value {
      type: DT_FLOAT
    }
  }
  attr {
    key: "value"
    value {
      tensor {
        dtype: DT_FLOAT
        tensor_shape {
        }
        float_val: 0.5
      }
    }
  }
}
node {
  name: "alpha3"
  op: "Const"
  attr {
    key: "dtype"
    value {
      type: DT_FLOAT
    }
  }
  attr {
    key: "value"
    value {
      tensor {
        dtype: DT_FLOAT
        tensor_shape {
          dim {
            size: 12
          }
        }
        tensor_content: "\000\025M>t\307\347>T\274\323=bt\232>,<\227=\250\332\234>\000\201\332=\025&\030?b\032\022>\204.\357=\213\255\353=)\037\333="
      }
    }
  }
}
node {
  name: "mul_3/y"
  op: "Const"
  attr {
    key: "dtype"
    value {
      type: DT_FLOAT
    }
  }
  attr {
    key: "value"
    value {
      tensor {
        dtype: DT_FLOAT
        tensor_shape {
        }
        float_val: 0.5
      }
    }
  }
}
node {
  name: "alpha2"
  op: "Const"
  attr {
    key: "dtype"
    value {
      type: DT_FLOAT
    }
  }
  attr {
    key: "value"
    value {
      tensor {
        dtype: DT_FLOAT
        tensor_shape {
          dim {
            size: 12
          }
        }
        tensor_content: "C\366\350=\2445$>t\346\364=\203H\322=\252\247\357=-\"\266=\023\'\253=\250,\221=\262\255\377=[\200\302=\361C\354=V[\332="
      }
    }
  }
}
node {
  name: "mul_1/y"
  op: "Const"
  attr {
    key: "dtype"
    value {
      type: DT_FLOAT
    }
  }
  attr {
    key: "value"
    value {
      tensor {
        dtype: DT_FLOAT
        tensor_shape {
        }
        float_val: 0.5
      }
    }
  }
}
node {
  name: "alpha1"
  op: "Const"
  attr {
    key: "dtype"
    value {
      type: DT_FLOAT
    }
  }
  attr {
    key: "value"
    value {
      tensor {
        dtype: DT_FLOAT
        tensor_shape {
          dim {
            size: 56
          }
        }
        tensor_content: "!\245\374=\342\323\002?S\213\356=\350n\210>\002#->\023\301\271=\n\352\332=O\002\203>\\\302\365=}.\327=\002f\322=\233{\253=\355\255\217>\333\017\257\275{]\314=\337\215\350=\372\313\220>|\316\351=\0347\340>\335\300I=9:\325=\371\251s>\337c\315=.>\210>\311\210 \276\034e\346=J\241\313\2751\'\345=\216\335\313=\320k\247=\305\230\342=>\\\344=\010]\243>\354\031\325>O\"\256>\304\'\361=2\363=>z\003@\275\310H\235>O\307m>\243\224\232>\274\351\032>?L\331=\306\021\342=LP\340=5t/;\371\234\366=\321\351\340=O\037\364=\231\370\245>\'\034\325=.\'\206<dH\036=si\355=\247\322\200>\'\031\312="
      }
    }
  }
}
node {
  name: "b6"
  op: "Const"
  attr {
    key: "dtype"
    value {
      type: DT_FLOAT
    }
  }
  attr {
    key: "value"
    value {
      tensor {
        dtype: DT_FLOAT
        tensor_shape {
          dim {
            size: 12
          }
        }
        tensor_content: "qj8\274\347)\022=\036\340\335\274\347\'\372\274\004\022\033\274\240t\245\274\276\274\254<\304J\276\274\016Rh\274Y\024D\274v\353\001=\030\n\241<"
      }
    }
  }
}
node {
  name: "f6"
  op: "Const"
  attr {
    key: "dtype"
    value {
      type: DT_FLOAT
    }
  }
  attr {
    key: "value"
    value {
      tensor {
        dtype: DT_FLOAT
        tensor_shape {
          dim {
            size: 3
          }
          dim {
            size: 3
          }
          dim {
            size: 12
          }
          dim {
            size: 12
          }
        }
        tensor_content: "e*\311=w\005\322=\316F\\=\257\240*;zZ\005=\221\334\205<B\201\213=C\034y\275\032\244\020>\004\262M=O\010\323\273\333\215\302\274\242\253\220\2755\332n=E\211\023=\303\367\314\274\266\021\342\274\343\340\025>T}\031=q.C;d\007^\276g~\215=\n\305\332<-\272\335=\367\334\020\276~r\304\275\r\227g\275\201%S\276\372\277B\274\331V\212=p\3379=\177+y=\230\"\365<\342.\024=:\253\240=\366\354\342=D\3262>\321!\007<\212\0261>\373\314h=}\016\340=\010d\227=\245\300\367=A\251\326;\257\355&\276A\317\334\274\327~s>\333\247k=D\3712\273\021\242\351\274\247\217Y=UV\235\275\351l%>>\240W>\202\311\226<7^=<\246\230\360=G\272\251\274\t\237s=4 s;\271P\302=}T%\276\344\365\260;c\037\202\274\327+\t\2746\363I\275\321\254~=\323D\027\275\271\005x;\010\244\205=\325\374t=LEv<\366\340#\275|{+=ofX\276\240\022\226=<\221\244\275\275:\301\275a\021\t>\222\007\026\275C\303\000\276\n\266\006>\233\206\257=\212\377V>\215\035\320=\200\226\320=\250\224\336=fy\246\274\320\331\274<:=!\276\200\223\220<\274\330\027=\204\243\242<\317)@\276\\\372Y>\"s\">\223/\';q\365\346\275=\240\266=\"\365\224=\236V\036>p\370\321\275\355(>>\323\252\361=\250\317\220=\255\224\007\272\374\325\021\275\2347u=\032%4=c\020<\276H\250\274=A\344\007=\245\0161>\353Q\201>\302lp\275&/C\276#\371\006>.\256\357\2732\0018\276B\342w\275~m\001=\332\216!=m\253\246\274\321I\020\276\234\037\215=\351\257\367\275\006v\177\275t\005d\275V\257>>\304/\\\275\321\340\031\276\230\240\343=0\236\"=1\262b>u\010[=\317\216\t\275\033\304\033=\315\363\020=\013E\000\276\306\243;=9I\002\276\344\363\200\274\261\316\231=\213\024\363\275rCk=\275{ =\327\267\251< \365\022=\375:\005=`\000\215\2753( \2754^W\276\323\375\n\274\021FZ\275\207\315\021\276K\330\236<\332(T<\346\024\250\2753r\022\276\256\001N\2759\265\200=\326\317\321\275\021\337\202=\260\352$>N]\320\274\333\205\341=(\256\203\275]G\257\275\260\231\370\275\256^\317<\342v.:R\341U\275\276X\311\275tBU\276W+?\275\356P\035\275z\034\n=p\264\036\275\260\213\350=\177\274\252=\006\tH;\212\347p>\242\334\257\275hU\364\274K\241,<\232xF\275\033tC\276\350\370\307\274\2521_\2766\360\202\274u*%\276m\344\371<\023\374z>\347+\007\275\033\027$>\304> >\317\310\370<\033|\002>\023\2050\275:\"\300\271Zz@\274\252\273\000\275\243\346\t\276\2004\302<\332\274\374=\346\033\353\275c9z=:\274\006\276+\025U>UX\t\275\320\027\272\275~\313\200=\'l\027\274\010\n\001>\266\177`\275\352\313/\274\217x\345\273B\207\232\275\356\334\271=\261\213C\276&\374\t\275\241\236P\276i\346W>\314\372!<\226\003X\275K\324\200\275\220\310h>m\267/\275zq\207\275\346\302\272\275\014\352\302=`y,\275\370{\212\275\2026V\276@\337(\274J|]\275\201v\006>\301\334\207\272\207\344\267=?_r\275\234`5\276^\013T=Tp\'=\226\322<\276{\361\204;\014\365\332\275\216&D\276\242\003\216\275\367\0271\276\330\224\211;99_\276\303j\006\274\2000\216\274\t\255\377\275\216\017p\276],\037\276\010\217/\274\030\033 >\314jf=_\244\275:\344gl=\363\336\374\275SLb\275\350\037g\275\203%\004>CyW=\252\2625\276\3404\310=\005dN\275\206s\333\275Y\324\310\274V\306_\276#5\232<\347M\341=n\337\221\273\234P\221=\004\341\352\275(\375\337=\177ge=\276+\225;\017\346\340<\307\301\357\275\036\352\215=bEs=f\316S\275Hy\030=\265\266\343\275x\237r\274R\370\336\275\366d\221=\365d\325\275\225\200u\275i\271\212\275\221\253\271\275l\234\356=\020\257L>\000\334m\275\325fg=C\235\251<\376\333\177<\376\254\025\275iF\201;\227-\030\276\376\216\031\276\301&\330\275y\370%\274+i\246=!.\213=\371\374\252\274\344Q\241\275\366\362\355\273\265f#=k\274~\275\365\315\313=\347Q.\274\326\363s\274\003\262\202\275\302\203J=G\202\273\273\263\n>\276ji\020\276\tI\025\275?\353\024\275C\352\226\274:\2736\276\207\304\'\275\351g\020>>\315\025=\"\220\215=i\010\231\275\025C.\276zm\311:\221\245\367\275o\360\311=\275C\220<\264b\217\274\020\230e>+\351\226\275\300\254\215=\277\270Y\2744\201K>)2\310<r\"!\276\222\203\266=\020\366\367\273A\325\253\272n\325\257\275hj\n\276\353R\304=\300m\244={z\232;H\215E>U\372\206;\234\325\013\276\237\0222\276c\321\271\274\306\303\343\274:O\236\275\305\2407>{\351(=J\377\346\275f\353\216=\017\205\t>G\313\377\275t\250b=\3660\250\275\270_{\275\\\0263=Gy\377=\201\312\014\276@)H\275\276\017E\275P\231\255\275.+\336<&\007\203\276\205\375\237\273~\271\223>G\025\321\275\201\302\265<\274X\367;\265N\341\275\320\017\327\274\343\337\302=\373\017\232<\210\013\033\275\354F\035<\300?\204>|\356\353<t\336\014\275<\327\321<\205X\355=\0005K\276\365\024\237\275(\337H\276#\325\364\275\270qh\276\256\302\272\274\017\0302=0;\207\273F\252{\275\016,)\275\233\314i=\311\013\002\276\036\326\264=\3313t<]R\246\274\337\342\317\274\253\333\023=\313\022\215<l9@\276\317\246\252\274\371\214\275<\261\014\216\2746q%\276A\207@=\240E\246\275\227\027\354<\034{\262\275z\274X\273\0038\267=}\363\r=P\014\211\274\261\347\207=\226\003\237\275)q\n=\2713j\274\024a\225\275v\030\270=\235\3417>i\355\203=\217\310\302<\231}(\276\025\201\251=\362\264\014<R\213^\276l_q\275\360\224\305=\021P\243\275\377\251\206<\2118\220\275\330qu\275a\001_=\226\213q\275\002\210i=4\002\206<\355(7\275$\260\334\274\273\246\330=p\245\027\276\333n\026\272\225>\"\276x\352\270\273\360q\341\273\246\205\210=\266\2706>X\017\252=\231\240\240\275nQ\376\274\016\260\316\274\231\345\377;\360\347\377\273\251\037L\274\005\313\206=\252\211\002\275\377,\026\2754}\365=G\210u\274\334]\246\275\226=\376<\345\260\016\274\341f\003>MR#>;\215\272=\177\"\031=\365P\216\275\242w\207\275\353\214@\275\336}\352=^\261\n\276\330\010\020<\244\002\274\275M\023\227=;\026\266\274\023<\215;u%\246=\234\322\244=\242\364\212\274\353[a\275NcO\2766\344\214\275\276\347j\274\205\026\274\274\364\341/\276Y\321\225=P\244L\275\025\302|\271\217\215\362<\270l\024\276\200\205\230=-\014\247=x\227\271\274$l\375\275\352\250Z=\223\313\316=\\\023\021\276\303R\242=\310\315 \276\301\376&\276\260\203|\276\367\242\262<\356K\230=\223\314\227=\331\220\252\275\021\245\303=\326G\227=m\303R\274\246\310\010\275\277\210\236\274@\365\267\274\177\201Q\275\371\326\r\276\247\202\270\2758\275\010>p\007\206\274\005\'\003\276P\005\346\275UOL>O)\220>\'\177\025=\025G\001\275\211\213\034\275\242^\r>;E~\275h\252\026\276\236\346Z>\013\030p<\013\317\226<*9\324<,\321\032<\306\354\203\275\263\035\024=nM3<a\215\032\276\303w\010\275\377?\247=Fp\031>\322Ao\275\004\324\306\274\033xe>\304\316\210>\265*\027=C\242\364\275\237\n\262<\341\233\232=\275%\373<\'\3033\275b\223\233<\320F\303\274\327\216\262\275\323<Q\276\300\211\346\275<\360\016\275\375\335\007=\026\276\243=oD\216\274\006@\327\275\232\225\306\275\270T\003\276I\004\245=\001%4<\340z\236=R\261e>J\230\025>d\026*=SG\356\275BE\277\275\332\022\264\273\014\201J\275\000^\334\275E\007\263\275\354K/\276\275\003\214\271\332\200\235\275\350\0246\275\261C3\275}[\323=z\241K=\365\250\247=\350v,\2768M[\275\r\366\n\276\227?;\276\265N\214\276IVt\275\003`\257=bOg=\354\361\\\276\231e\372\274\264\273\037>\t\023\"\276n\247\325\275\210\016\204=\337\362L\272QM4=i\241\267=\310@\251\274\203\030\007>&\002\264=o\355k>\2309\010>\017d\275=}:\243<\316+\271=\240`\237\274\303\277\316=\231\366f\276\253\334h>{E\234=&\031\006\276\332 \025=\350\237\n\276=t\305\275\331\252[<\2359\375\275\025&\267\272\316\350\220=Q\023\026>7\025>>Op\211\275\303\351\300<\253\315\362\275\001\004\332<\236\027y=\253\323m\274\203%\033>\260\037->\261ce\275\226\\Q\275\346\301\311\275Aq3\275\323B\206\274k|D=<\250\251=qW\\=\245\357\334=\2260\306\275\223q\206=\333(\271=\340\211\247\274\203#\264<\202^\355\274=\221=\276^\231\227\275\\R\346=\0317\245\272\213XQ\275}a8\275%\334\346\274\353y\301=\376\t\306\275O\'v=#$%\271\362\230\204\274\230]\237\275\356c\307\267\310\271\241\275^\317\335=\2563w\275\317\222\021\276\304\333t\274KL#=\n\335\207=\265\244\322\273\322\211\223<\001R\260<\357p\321;\330\372)\276q\340\332\275\347E->\037\353\361;q{\310\275\347\030.\276\265a\007=\022\245v>w\246\233\274S\276\240=\207\275\211;\253*\245=\212\007\250\276\264}D;ka\344\275\253&\341\275:\312J=c\030\212\275\362\013 =\337\356\025<\246\313:\275\016,\004=j&\022\274\261\005c\275\n-Q\276^\224\362;g<\274<\321IP\275\201r\312\275\377r\354\274>\2366>x\312\273=w\324o>r\313\362\275\244\272\321=\277Q\233=5\031\023\276\207B+=\202/\301=\365\221\357=\306\263\027\276\0346\300=\214^\255\275}\022~\274\363\373i\275D\312\035= \026[\276?V\324=\357\270c=\353\272\241<\311q\231>V\345S=\270\232G\275\343:\345\273g\200\014>\372\214\373\274.H\022= \377/=\245N>\275\006\034\360\275\334\303\374\275li\234=\361\300\006=\033\310:\274\372wx>wZ\205=\252\021\013> \232\010>\204\372\206=+6C<\023\273 \274vTo\275\305\001\267<\215\025\021<WR\022\276\322\332.>\214\027\257\275\270]6\275\\\377\260=\004\341?\275\240u\225=\371\316\252\274\216\006\313\274_\262\255>\024\371\351=\362B\332\275\350\231\322;\252\264@=!-\t>\254\211\276\275\351ZG\276*D*=Ca\333=\343\201\207\275nX\275=\315w\267\274w\240&\276\227\223\262=\007l\215<\375\301\245\274\027\303N\273H\\9=\230\263\320=\336+E<\034\004\321\274\312\332\327\275D\320P\275l\020\037>r[\023>\272\367\257<o2\356<\300\340f\275\315\205\342\275\003\252\030\274DP\342=\212\357\365\275\206^\207=\330\324\003>\241\314\234\2752\337v=\356#\202;\037\006\334\275\2002\273\274%\3136=\346\300\365\275\364\363\234=a\231\277;\335\367\374\274\021\373&\276\207\365t\2752f\344=L\371\302;\256|\257=\013mb\275\336\254\312\2753\031\361<I\264|\274\021\340\254\275cD\357\275b\367\017\2755&\212\274:\260\257=\030\244 \275\316k]\276qP\037\275?\361\006>\234T\223=,\370B\276v\262\224\275\222\333\027>\202\364Y>{I\212=\2778\005=\220\304\007=\330\244R=\200pN=\222\242k<Z\003\005\275_g\t=`\021x\275\346\235\367=\213\202\355\275\021\272M>^\341V\276\2133\014<J\331\216>\032w\210\275cdA<a\224\364<\256\360;=\232|\017\276\313\325\335=\247\316\351\275B\000\021=\\\217\037\276\317\267S>\227\351\260\274+z\340\275\216o\302\275\275\200\334\273\n\350\373<\222\253\022\276!v!\276\001Gn\275\236|\206=yu3>\375\340\355=0\362%\275E)Q\274\254\262\242<\276V\036\274\327$\013:\377\274Y\276\377\230\341<C\202\246<>E\316\275tw\270\275N\025\232=\270\360\204\274\320\022.\276:\356\214=\337\034\363\274\3265^\273;\374G\275\266\224\261\273_\320\242=\031\357\351\275\0220\210\275\202\202\r=\350L\025>\242K\274\275m\360\314=lx\017\275\246\222\251={\013\267\275\r\3376>.<\274<^\244\004>x/Y>fH\217\273\312\001\260\27530\327=\306\0072\276\006H\206>\346\347==\231\036,>\366\034\372=QU\355\274\203\360\350<\312\363\354\275\377f\272=:\276\025\276{z\270<r\310\r\276\"\2775>%a->\225\3631=A\007J\275\320\017\232\275j\337\r=f\343\021>I\000\212\274L\224\355\274\313\0301\276*i9=\2550\035>\305fy\273s\360\355=\351]\217=\006\177\354<\255\311\003\276\026\371\235\275OO\367\274\376\310\363<\224r\317<\214\344\340\271\241\202d\273\222\\<\276\214\036\267\275\006\323|=\320;3=OF\332=\277\345\243\275A\025\351\274\2513\032=X\3320\274\312\235Q\275\303\244\272\275Q\335\212\275\246\024d\2762 F>)\261\230\273\302\031\312<q\351?\275\031\333S\276]H\336\274\206\206|<ta\323<@G#=\200rX=H\301\246\275V/\334=1\365\300\274X\303\357\274\350\277\247\275\033\353\302\275ABt\274x}T>\223\\ \2714\304(\276\3610\024<\335\350\313=\266\300\353\274\274\032\260\275\217p\327\275\312i\347\275 Y\231\274\353\314\237\275\217x\276=\3618\320\275c[T>\025\376\t>Mu\022\276otV\275\375\027\363=\310.\315\275\325\264j\275g\366~\275\201\027\247<\205X\036<R\350\032=\272E\374<\306\250\363\275\371\036\315<\341\211\004>\277\212h\275&\200\251\274Q\225\035\276\222\013S\275W;?=n\367\213=\367A\342\274\367\266\260\274\252i\361=\246\031\301=?\236\034\275C\034\264\275\253q\330<\013S\301=\233\241\224\275\202\247\222\276\264*\'>\031\362\t\276\277j\016>\344H\202\274$g\242<\227\272\023\276t\225\025\275\307\336u\275\'I\014\276\006\366\320\274c\233H>:f\017>\252-\343\272&Ye\275W\222!\276\3075\'\275\r\333<=\372\200\t\275\312!\022\275e\006\377<mC\202\275\037s\321<\251\264\030>\234\242\227\275sm\236=\367<\024\275\r\313+=\266t\021\274\200|t=\226\374\221<\2743\255\275G\275\312=\003\221]\275\374\340\302:iL\027\276\033\214)\273\177\336\010\276\t\277\267;\242\205\200\275\245\347\272\275\275\037\002>\375\240.\273\247(\026>\212\276\256<d$\204\275\216#6>[\002\276<\246\347\240\275\204z#\275$\207\031>\343\207\302:\254^\t>I\230\310=\266\367\r>\350~\233\275d\017\214>\334\006\032>\255\362\322\275\351\017#\276\202\374\021=l{\016>\210ey<\315\223/\276\230RJ=\332\214\222<\330=\244<\245\003w<&$\336=\014H\361\275\302\324\025\275\223\r\024\276+V\004=\361$\204>=o.\275Z\241R\276\332+\337=\327\370\247\275r\"\001\274\350\300\367\275\333\000\263\273\370@\223=ZN\263\275\323E\340\275@\353\017\276\340d?=-\022}\275\346\352\024\275J\220\334\275\207\312\005>eN\'=\301\277\203\275\317]*\276c\236_\276=f\270\275\321\006\306\275\032\204\373=\276\263\317=F\0354\275Q\304\263=\355\215#=6\366\013>\376\206a>\212T:\276\311\3617>\301\214\264<\256\2364\2753\376\210=r\312\031=\2622\304\274\267b\320\2757\220\306=\355\331B\275r\031\000\276m\253\010\276\231\007\217<\000\255\212=]\251b\276Ti\310\275\235\243\330\275e\365\037=\022\237-=x\216:\274\362b7<\0014\016>\313\342J=\027\232B>\345\002!=2\034\342\275R#\337<a/n\276\372y8=\2760\215=\314\276m\275\206\220\n>X\030\207\275\373\010\250\275\371w(>\014\255\017>\240\273\'=,\004/=\270\353\305=*\364\035>\316\345;>`\236)\276Pm\026<t\204\276\275\213\262\023\275\311\023\010=\373\370\222\275\207\337)>\353\000\310\275u\311Y>\306\251\317\275*l\331=B:\215\275\375\270B\274\345\270\002=\241\216 \276\310\\\030>\373\023\274=\223n1=90O\273\311F\341\275V\032\007=\344\320\221\275\331Wt=\201\237\211\275\237\014\004\275/-\'\275\316%c<l\216\037>H\316\205=\023\210l;\301\310\347=\327\233^\275zU8>\336I\367\275\301Y\034\276]\260\201=J\346\264=o\344\226\275\243t\266\275\340\220\317\275n\373\207=\037\220\225>4\316\364\273tI-=s\246\266\275\306\360\017\272I\211S<\332Z\366\275\304\363\331\275uF%\276\277\214\231\275\353\006\333=\026\362?\275\331\037@\275a_\025\275x:\t\276\2357U>\364v<\276\364nb\275\365\263C\275\272\004]<\320\024D\276\276\r\"\276\n\323i=\3429\r\276\024\r\035<\036\317I\275\360\227\207<\245\021\217;\n\267\2769bS\211=Yw(\272\327\340=\276\206\211\213=\347)\312\275d\215_=\366\376\r\276~J\004\275\355(\026\274E~@<e\376\200>[%j=\212\237\200<\010\262\327;3&H\276+gy\274>\206\t\275\367\027\242\275\312i5\273r\n\251=\037y\t>n\301\n>L\225\206=*\331R\276\014A<\275\223\307-<\263}\035>\232\376\341=\246\332\356\275bT\303=V@\270\273\021\252\232\275\372)A\275\360l\360:zH\t=\337M\315\275\371}d\275\250\023\270\273\335\201\315=\311D\244\275\021\007\271=X\271\272\275\372 \264\275\312\224\354\273\031K`\275\253\346\001>\370c\022\275\022v+>I\351\247=;\275\202=\343\371\275\275\332\376P\275\025\271\016\276\nT\244\274$\354+=\325\264[\276\252\265\226<I;\210\275\235\315\241<g)B<(\370\360\275\317\264j=e6\310=\343e\265=,6\">\"c\237;\253%\006>A\202\205\276\221\323\273=M)\267\274\031C\336<\321\234@\275_\000\206\275\016d\355=\201\025\'=Z\335\327="
      }
    }
  }
}
node {
  name: "b5"
  op: "Const"
  attr {
    key: "dtype"
    value {
      type: DT_FLOAT
    }
  }
  attr {
    key: "value"
    value {
      tensor {
        dtype: DT_FLOAT
        tensor_shape {
          dim {
            size: 12
          }
        }
        tensor_content: "b\375\360;B\320\"\274p\032\340;t\006\314\274Z,\223<\006\005\230;\315\204R<\372\033^<^\347\322<\005\260x\274\347zW<\323;p\274"
      }
    }
  }
}
node {
  name: "f5"
  op: "Const"
  attr {
    key: "dtype"
    value {
      type: DT_FLOAT
    }
  }
  attr {
    key: "value"
    value {
      tensor {
        dtype: DT_FLOAT
        tensor_shape {
          dim {
            size: 3
          }
          dim {
            size: 3
          }
          dim {
            size: 12
          }
          dim {
            size: 12
          }
        }
        tensor_content: "\353\341\267=VpX>\373\355(\272\023\233\032\274\344\216\333=\305=7\276\337E\014\276S\277V=)\257\213\274\203\256\327\274\261\367>;\220\022^\276P\3357>\212\377\240\275[\325\"><\323\361\275F\3565\275\36353>\242\326\305\275\332De=\027_1\275^6\225=j\177\302=\006J\231=\311\246\036=\231\263\201\276\021t~=%O\353\275\242\374\264<\315\247\234=\235\330{>\254\251\305=\246U\275\274]\274\202;\322\024S=6zg\275\005\233\316\274\274>\230<,\014[=\376\305\345=d\000\'>\001\357G\2755\360\321<\245D6>\345]\232<\022\322\245=i\3641\274Cj\227\275\373\212\236<\245\362\022>\014\034\346\274\214J\233\272U\246\264\275\270k\363=\2746\365=\335\225A=H\t\007>)\332\356=\227t\337=\212E0\274\213!\254\275\371-\020=!\256+\276\004\313\205\275o\245\337\275\010\220\346\275\001\003\007>\334\231l>\253\220\031\276%\330B=\000xa\274|<\237\274\350\037\371=$yD\275\023(\354=r\200\234=e\2375\275\301\361\201=w\344\201\274y\005\270=)\2365=k\323\206=x\357\261=pQ\262<\234h\034=\274dM\276T\316\020>\342C&>E\361\343\275\'\301U\276\005\233\347<A\204\363<\366\325\272=\236\313H\275\'\377\342\274>\252\255\275\233l\273=\210\025u=h)M>j\226\364\274\2114\251\275\nr\254=1\307l=K\225>;\350\215\270\273\006\276\300=\227\367e<>z\251>Q\244V:\325\263\200\275\210\243\215\276 \324\330\275\205U\344\275\352\321?\276V\204\321\275\244\252\250=gP}<Z/\360=v\255Q=gs&\275\325\212$\275\236b\335=\033`\376=y\337C<\202\365K=F\031\213<\310\n\033=\230\273\217\273\2570\034\274}=\351=e)&\276\246_L=\373\335\022>\306\335\354\275\216\372C=\311\331:\276k\001#\276\002}\341<s\217\010>\24250\276So\326\273~g(\276\241\242\022>\025\006\362\275z\367\252;\255h*\276\361q\317\275\242.\304\275\222\373\302\275r>[\273\207\330\032\276\016\331n>\036\026\353<\372\346g=F\027\014\275* \003\276\010\356\336<\245\027\226=\322jX=\335\363\360\274T\353\302=\234\030\300=\t\342P<\231,\376\275L7H\274\206\252\014>\247\323\214=\301k\263\275\237K\317=\270b\037\276\263\036\310\275c\224$\275\330\3237=BU\362=^\362\245=f\231\032=\364\223\303=\226\034\203\275\346\267\317=\313\205\307\275\'\250\325=&X\020\275\215\243\242\273$\2078\275#\310A=\237\230F>\017#\025\276\0273\026\275_\310\304;%\177\201\275\266w\227=\026\204t\275F\3503\276~io=6G\311\275\3252\226<\035\326\030>\210\222\262=\353\247\365<\214x\n\2752\237%=tO\017\276\227\351\3559\257\234\316=\330{t\275\355\022\225<RUG=\215\277\373\275\375W\224\275|\t\202\275\035i)>\321\222[\275z\271\354\275\265\273%>{lc\274\304 \337=@IU\2755\373P\276\225{\203=\321\314B\274\357:\201\275\322\323\346=v\t\263\275Y\346)\275H\210\235=\177^\003=|\330\033\276\371\201\301<\370\210\275<\353#7\275\347\240+\276\313\232X=\365\0063>m\374\225=\213\251\273\275Q!.<\335\332}\275:U\256\275j\274[\275\313\264$=\331r\273<\321\337\326\274\037\342\203>\272K\034\276\033\364\376<A\330/>\r\021z\274\3265B>\362\221\343\271\370\3071\275\332\024\212=8K5\276\010\r\213=\274\335>\275\'\331\254\275\323\246\013>g\017\001\276\000\266\375=\226\"\030\275\323-\207\276\000\205\245<j\301^<rD2<\232<\271\275\326F\233\275+n|=\032\303~\275)\224T\275\036Z\267\274/\021H=b\035P>\366\254g\274\240=\316=U+\354<\321\237\361=\024\252\317\275\360\342\262=\201\220\r\274\244\023\201\275!XV\276~4%\275\302z\236\275=\234e>P\"W\275|e\273<+\340~\275\034p\t\275\353K\326\274\376\366W=E;\006\276\212\341\243\275\256\346n\274j\373\357\2759Y\302<\317\202D>=\376\313\275N\010;\276m2U\276Rvq\274\277\030\036\276\000\351$>f3s>\346\232\003>q^\310\2727\324\026>\037N\031=\260\3148>^\206\220<\262\2675>\2423@\274-\305\352<\r[T\276\251\033C<:\347|\274U\353\231\275\006\'\376\275\366\226\376\274\007v\342\275 \253\321=:\001\202=\335\323\201=\214\233\332=D\032\013\276\314\373\023\275\253/c=\350]\211>\252\200M\276\213#]=3XY=i\020\265<\256\375\014\276\256\362\036=\006K>>|Ai\276\260T\257=ly0=\240B\023\275\016\304\302\274\026\033\262;4\037\356<\035\300)>x\207\206=\242<L\275\374\217\024\275\337{s\275\317\236\355=s\347\236\275\301,c\275\347O\254\275\003\351Y<v\003`>L\t\365=\344E\201\275\252\230\321=\200\264\244\274\256y#>\374\345\"\275d\260\031\273\264\303j\275\3168\344\275~\0220>\360\n\030>\210\3445\274\304\000\007\275\206\367c;\233\213->\212\034\003\275\311\302\t\276\021\234\227\275\325\326\235\274\255U\275=\334\230\244\276F\374\364\275\024\226\003\276\325\231\210\274\026\'{\275\216\366\200\272\004R\\=s\373N\275\316Y\337=#n(\276\224\230\236\274h\214\277\275\310\354\000>6\031\345\275S\014\256\275\265\032\001>\361\336\010\275\306\342x=\n\300[=\277<\311\275\2046\270\275\335\225\233\275\200\367\231=Q}\264\275\203R*\273F\225\035<*\311\000\276\\\020\331;\3231\255\275\361G\271=wk\245\275\263\276\241<eb\256\275v_\241=\371\214\032<\3655\006=\220\253\234\2748\233&>27\026\276\232\200\370<\216\267J=\001\231\354\275\217\251\212\275sK\223=89\005>\013\221\026\275\024\2064><W\212\274/e\005\276J\331\377\274O\335\223=$\235\022>!\365\023>\344\257\226\274WK5=\246\301\"=^$\025=\001{\235=#|\023=\027/\355<\333\366%=a\311\000\274\3350\025\275?h\235;6\335\326\275\'\036\370\273\201m\246\274@\367}=\256\3110\276Oa\023>\214I\036=\263\237[=V \320=\213\233a:\377\235\203=\363k\242=3\370T=\030G\322= b*>\010\r\226\274\347\356\032\276\353k\r\274{\321\025\275\371%3>\364\267H\275e\360\304=\201\372\361=?\275->\267\327$\275\211Y =\305\215\241=$\342\354\275oB\n>V\020\206=\353\253\'\275\016\365\246\275\210!,<\'\004\213\276\331a\267\275\272@\002\275$\\\316\274O\016\231<\227\010\007=~\006\300\275\034\000\321\275\'S9\276\252h\002=\275\037\'>fIX\276eWw\275\310N\246\275\372Z\304=\004i\211=S9\016=\021C\240\275\244\217\261\275*\006\244=\245\3372>S\257\311\275j\220\237=\200\346)=\243\322\\\275\000\273p\274l\033\n\275B4\325=/\025\323\275\345\341\215<\250\233\014=\344\261\332\271\234B5\276\355\021\030\275\2063o\275\020\005\267<fc\216=\000\364\275=\343\314\r\276\246\2611\275\255\003C\275u:e9\250Y\206<\311\225v\275<\225\270<\255\352\262\275\361\241\301\275\312U\363\275\213J\337\275\317hM>l\200*=y\272\022>\257\003\246\275B\246B\276\347\261\337\275l\177O=\250\005U\273\324\333i\275\014G4\274l\\\030\276\334\337/<`n\214\275\266\306\032>o\232\213\275:p\200=\334\t\334\275s\263p\275\320\353\001>S\375#;\276g\252=W\221\314\273\t\2319>Wu\241\275\235\323\030\276\314\237;\276\370\254\022>\010\222\230=\037\201\010<\n\3053\276*\037\247\276Ix\375=\316\221,=\1776\254\274B\313\027>\270lD\275\2550\342=\034\020\261\275\010\342\273\275\376\370|=A\200\216\275|+\216=\214\361\240=f\272\277\275P\352Q\276\004$l\276}\210e=\177P)=\\F\327\273\367\247\206\274w7\032\276i7\363\275\261\026\t\276\017g\215\275DR\230>\326\356E\275\306^\007>X\002\237\275\320\3700\276\337\230 \274\276\371\227\275\021\240d\275i\372n=W9]>p\345\320\274\306\232i\275\313L\354=\307\250\005=\240\213\022\276^\215s\275\337\212e\275\254\225\356\275iN\236<\246G\275\274\206\224`\275W\352\032=wd\275=t\205\024>j1\274=P\207\233\274\351\305[\275\204\213\033>\030b:=/\373\315=2\3062>\314\223\242\275P\376\t\276\256\010l\275J\316\254\274Y`\225=\303\003\357;@\005/\276q\t\302\275\301\325->\256\\\007\274\360#K>Ce\270\274U\331\026=r\3315>\222<\007\276\315o\221=\251\000{\275\023\204\320\275\366\320\313\2758\257\233\275Z=`\276Z\271\007=\034\244\267=\351\363\321\274\317\215\016<\201\033/=5\341\245=7\314\370\275\265\033\252=\004e:=\254\223\322<t\203r<)\203]=\365o%\275\020\367\220<$\366\201\273^\002\310\275)\035\033\275\311\250\234\275%d\200<8T\250\275B\371$<\214d%\276{\275\272\275{\254\341=w\024\201>.\227/\274r\334\304=u\213\307<\342\374\302\274+\270\337\274\221R\232\274\346h-\276\316S\n>\374\364\010>\366\226\247\275\303\\\001=\316\341\003\276v\270$>O]\333\275\330i\220\275\336\013\363<\221W\346;\013{\302\275x5D\276Z\332 \276c\373\027>c\230U>+\360G=o[1<\330\325+\274Hx\326>\376\347\034=T\310\243>\026\220\r>6x\033=8\241\273\275\216\263\263=\323\017\263\275+T\351\275\234\225S\275\253\256y=\'\321Y\276v\314\n<H\3171=:\265\014\273\321\361\030>\021n\270\275\224\312\366=yM\027\276\005\324?\276\255\232\032>\252\356*\273?U\207=\014\217\262=\n\363s\274p\023\221=\237\377!<X\201\240\275s.\327\273C\r\361=\245M`=\350\355\314=}\363\374=\312\037\242\274\347\336\321<\340#\244<t#3\274\030\220\030\2742\030C\276\336i0\275~_\332;\333\272\227\275G-e\276e@H>\236N\232\275\377;1\275+PQ>\241b\245=\367\313\211\274\001\311\t>\3750\327<\375\263\026\276$^D\275\267\241\020<\306f\t\276gj\237=<\263y=(\003\266=\346\351\271\275\016\221\374\275\344\n\034<\226\227\327=*\305\207\275\3618L=\006\335$\276\357\263\375<-\371q=~\356\363\275$\305\346\273\333\253O=\r\031\212\275\325AO=\310\247z=}c<\276\230[!=W\223~\276\276[m=\260\226\034=?\177-=/\212+<\257h\200=4+z\272\267\007e=D\001[\276\023t\200\275k\226\031>\2243\031=\270Z\331\275xA[\276\010\236\250\2753\003U\275\367\242\334=\217\2530>\"dG\276}\202\266<\275Fo\275soZ>\314\346w\275\024\314P=\213\000\034\275\232\222+\276K\311X\275`T5\276\264z\t>j5S>A\001\017=\242\215\253=fN\211\275f\217\215=\022\303\232\275 *\343=\364aT>\010\034\317\275\354u\201\274\2502\300\275Y\336\201=\205\025O\275!l\203\274\026xR\275\025&\013\276\327\256\t<xk\316:\256\272D\272\032C\341=<5\277=\334 \273\275\375p_>\272\312\261=^\275\241;9TM>|e\023\276J\034\377<&RE\276&\"\200\275`;\247<\201;\264\274<\311f\275\346\206\210\275v\230q\275\010\210!\274C;\212>\270\241\251\275\356Q\005\275Q\035\025>\260\375\004>#)\253=\277\003\333\275\250[\030=\266\000\023=Mh\337\275\031F\375=\212n\001=@\237<\276#)\254=\004\315+\276\\\301\200\276\216O\343=\331\313\350<\314\363\346\275lj\030\276\300\323\236<\305\274\241=\272\266\266<\334\202\004\275\313Q\005\275\024\377\030>**\230<\035v\014>\2727i\276P\200\035>?\356]\273\310\016\346=\271\266\225=\250\245C\275]\270\017>b\364\343:L\242\\=\252Y\027\275\005\255\000\276;\366p\275a\242\341\275\237x\223\275|O\003\276\027\371\313\274-s\204\275\220\202\021<\347\317H<\177]\353\275\236\345\304=\237.\332<\300q\035>x\331\351=<\261\265\275\265\337e=u\201\277\274rp\027\275\"\203\336;\320\230\215\275\027\260\261=b\351\354=u\253?\276s\332X\274\035\331\203=\216\250\036=\02363>\020M4>\356`\234;\264\235\336<.\355\305<\022@d=O\302\036><\232W=-\373\203<\216\366\013\275\351\331\311=\376\327z\275\177\276\200\275\010T\244\275\270\022j\275\327\361d\274\276[\316\275\371Q\372=;\264#=\241X\344<4C\302<*0\216=\262p\355\274_\247\250\274\017\t9\275\353\247\330=\230:\326=\335_n\275@\200\300=\271\331E>-@\322\274\240?a>\220\317N=\2507\303=\207T\367\275\233\003\225\274\007\300\375<\025\3170=h\3258\275\024W\027>V+\260\275\317t%\276\271x\310=\226\032\245=m4 \275\376o+\275\210UM\276\334\244\341\275\371\033\262\275$\311\253;\236\026K>\270\032\007\276\201\016>=\220\367\317\275\274\323|<\032u\256\275\255/0\276\207\343\350\275\225\016\r=\214\033\235=|\315T=\203\243\027=\350\344\220<\017^\030\275\263\361^\275(\337\221\275\331Z\333<\351\202\266\275M.U\276\350\264\211<)\307\317\274\376l\017\276\272\274\234\275kk\243\275\n\000\026\275\212\'\000>\207M\036\273\204\362\000>\347\021\276<#.!>\254\r\205=tA\007\276>\347e>\366H\027\276{3\337:\273\n\237\273d\277\310\275\025\010j9\271\226x\275\006\010\026>*e\035\276k\213\342\274e\276|\275.\377\332\274\264\341\206\275\016\270\301\273\255\007\371\273\227\316V>\375\027\220\275\226\275\313\275\216g\\\275w\327\217=\251\033\355=\354\376\234\275z\340\301<\233J\022>\352\360\351\275,\364F=\342\277\232=\275{\037=\320\306K=\332\243\243=\201E\375<\2566\256=\004s\020=\324\362\232\274\313\360\224\274\256K\255=_R\355\274\2335~=\266\001?=\013\305\034>\256\002\371\275\201E_\2752Q\250:\213\363I\274,\326\300=\226\354\032>\301\n(=\252\375\013=\030\030\375<\003\375\036\274\227\300\033>\210\234\023=x\306m\271\227\326\301\275\265\326.=\363\313F=\234\016\227\275\252\034\263=\273\177\354=\010z\234\275\313\352\215\275\t~w\275\352\334\222<\277\2331>b\242\316=\270\325\242=X\350/=\013\001\032>L\353\363\274\0323\273=n]\216=Q\r\205>N\360\027\275\026\306\273=\210\360)>\221l[=\003\276\337=\310\367`<\323\341n\275;\223\023\2754\2000\274\036\270\223\275\026\034\025\2761\024\252=\031\213\264\275\255\214\013>\257K#>;?\204\275\322!\214\276\364\3634>\271=_\276\266\321\202=\227>\253\275\236\262J=:\240\027>\234A\203=fi/>\227\035\n\276\347\232-\275\337\000u=\374\343^>\301v\"=\264\340\312=\2431\362=v\016@;*U\260=\261\017\346=\200\256\014>\346)\213;\220\024`=\356\245f=\222\255\033\27519\301\275\204\331\206\2753\356\203\274\237\314\244=\363\272E\276&+\271>\370\242\277=\354\261r\275>\266\013>\334[\351=Y\307\267;\267\352&>\017|\n\276J\024Q=e\036\226=\241\270A\274\003\227\345\275\316\332\347\275\340\"U;\r\037\001\275\370\302\226\275\216\013\366\275\327\000\025;\253\273\320\273\310\031V\275i{\014\275\243\232\351<\324^5>j\177\222=\227\270!>\363\253\321=\0259Y\275\227\366$=k&\240<\354\234+\274k\r)>\257t-=g\316\264<\375\227\270=\354\326\n=^\211F=\362\221\211=\003|\354\275\300\034\232=k\214\016\276\376\205\022>\327\205\023\276\266\004\351\274Sp\245=\361\004y<\351\252\"\275&\246\221=\037t\322\274j\332\000<\361\341\230=\2432\260\275\375\332\253<X\272\022\275F\032\273\275\222\253P=\n\364^\275\027G\013\274\303I\336\273\224\236\301\275\026Mq>\025&$<UF?\276*\304\212=N\375_\275\365\253\233=\252\220\004>\001u\312=\322\343\207\276CQ\010\276\262\032\332\275\317\321\357<<\217\355=\325\355\260<\032$\312\275j3):+V\014\274R\240\270\275+\363\001>n\025\327\275\372\274\033<\342\236&>\233\260\022>\346\337\030>\250\337(>\026X\004>\221{B<\251\221\235=\246\332\004>\304\2125\274,84=\363\357\244\274@aq\274H\351\006>\212\225\035>iO\370\275\004\3078>f0\237=\007a\215=f\\\231<|\305\363\275\347J\324\275\313x*\275\227/\325\274\360I\005=\024\310\3369N\242\342=U,\346\275o\276r\275s\351\337\275\213\245i\274k\014\317<\260\362\010>\021\327\330\275\013\216\272\275\237\310\036=\375@+\276\236\027B>\216\313\302=;\321\217\275&9\330\275\333\307\261=+|h>\031\301\231\274H\326\350=\370\024\r\276Ve:>Z\365p\275\320j\357\275$?\262=mFH=\023\235N\276kK\033\276<\216\365\275\325f\021>L\017&\275\313\n\366<\013\310\232=\377?K>\363!\304=\201@\273<>\"\317\275>\250\324\275\314\235\367=%\267\307=\026\213\204\275\211\033\335<\232t\016=\355\203\354=\270\020\223>\363qv\275\317+(\275_U\211\275%\3513=\302\217\027\275\366})\276\251\234\273=\214j\305\275\373Q\255\275g&\211=\033$\244\275P\347\326\275\023#\332\275\331\352p\273k\355\027\276$\016\223=\21557\276\245\356\270\275\350h\325=\205v\300\274\321\300\355=\224`\013\276\357p\205\275n\325x\275\'\306\241=\331\342^\274\321:\237=4Uj\275\014\331\222\275\3564\330\274\245E\360\274\273(\014>\243\315v;\231@3>\234G\022\274%\311\310=\263\034\204<\316a\000=e3\327<i\321\010>\207\277\307<j\337\277\276`4i=\344L\273=-\365<\274\2171\245\2733\206&=\362\324\216;\010\236G\275\276r\207=\321\201\013>\245Y$\276\341\255\263<\203\004\t\276\007\204\351\275\331\212\311\275o\273-<\377\274\177>]\241\372\274\332\242\301=\365;\001\276\254Y\t>\340;\200\274\205\037\037\275\213\224\010\276\310e\000>\022\351\350=\017\345\014>\311M\351=6\033\234=`\365\345;"
      }
    }
  }
}
node {
  name: "b4"
  op: "Const"
  attr {
    key: "dtype"
    value {
      type: DT_FLOAT
    }
  }
  attr {
    key: "value"
    value {
      tensor {
        dtype: DT_FLOAT
        tensor_shape {
          dim {
            size: 12
          }
        }
        tensor_content: "\256\211\243\273\343\033\267;\256*\237;\316\177\270\274\030J\242<g\272\274\273\3053M\272\304}\311\272\303\303\244\273b\260Q\273\306-\270;\037\261\354:"
      }
    }
  }
}
node {
  name: "f4"
  op: "Const"
  attr {
    key: "dtype"
    value {
      type: DT_FLOAT
    }
  }
  attr {
    key: "value"
    value {
      tensor {
        dtype: DT_FLOAT
        tensor_shape {
          dim {
            size: 3
          }
          dim {
            size: 3
          }
          dim {
            size: 12
          }
          dim {
            size: 12
          }
        }
        tensor_content: "\365\2340\275Zg\305\273\346\000C\2754\263\215\275\037\021\331\275\247\253C>\272\226N\272\224^%>)X\027\274\322\240\351\274\313Vn=\317\366\216=\034i\231\275\257\2214>\352\213\266\274Y\340)>\303\030\205\276G=\206\276\366\357\367=\315\367\010;|\224\016=l^\274\273\002\032y=\013tB>.qc=/I\270=\227\267\351\275\333A\372;\031\033\260\275O\333\2049a\210\007=\3144\350=\331\226\227\276\244\3135\276\230E\357<C\260{\276\224\251\010>\225\272@>\240\2629\275\2411\321<V\252V=0\3305>\373n\177=\253\r\n\275n\214\342\274\236>\322\275>\275\027\276\320\213\002>\0010\025<\243\2517\275\247o\273\274K+\342=\327@\273>Zw\340>fD\237\275\304\350\333\275g\342\022>45q\275`b\027=\313[8\27544Q=i\247Q\274\350?U\274\315\rj=\025\2076\275V\272\264\275\306\tC\276\007C\267\275C\363q=H5\">\335_\013\275\351\357\'<\3114\355>\233/)>\214\236 \275$t\306\276\272@\355\276\342\320\013>OY\024<\277\216\250=\233H\024\275\340\035r>=\302\251=q\323Q>\035\003\221\274\004\236\025>\223\316m\273\027J\027\275\254`$:\004D\322=\246\353\204\275FL\'\276\n`\310\275\002\316K\275\253yP<<\341i>`\350?\274\034n2\276\230w\354=\235\317\006>\261\027\n\275\364\300\213=\3621\027=W6\003\276j\326\251\275|8\300\2755\274\263\274\342\026S\275\305GW\272\346\322\251\275O!\311\275\307\177\313=u\354w\276&\214\357\275\215BW\276py\244=\350\260\243=e\217\t\276\200v5\276\267\314\276=~\352\241\275W\331\177=\264\200\376\275\000\201\257\275qU\365\275\016w\305=\030\027\235\275{\350\264=v\246\030\275\032\352\255=$\014R\276\267\303_\275\n\2572=\223\247\277=\337\326\346=\005\270\267<\213\3058>\245\244f>\377\373\262\274\000\330\375\275\201\235\t>sC\301<R\230=\274\177c!=\250\031\010\275\203\255\304:\377\245\013\275T\362\323:\272b\014\274\235Y\315\274\376&\010>\357%\371\275+&+>u|\253\275\273/z\275\032\213\027\2752\352\232\275\225k\354=\003\332\r=\267\252\342\275\3511k>nZB\276\t\000\376=\252\020\277\274\254?\013<%\241\373\273\2059$\2751\244\016\276\246W\346=\357\360\356=X\013l\275\223\216\361\274\310\330\027>\223b\257=\364\274|\275\352\031,=\017\220d>\266(\267=s\312\203=\3644f\275m\332\214<\243\\X\275\232(\007\2762\247\324=r\3019=\215J\366;\361\243\210=]\345\024\274x\253U<z\n\002\275\223l\232\275\251k2\275\"K\007=\th\'\276QK\264\274\203\225=>\360n\375=\352\312]>~\022M\275[*\033<\326\\g\275\034\031\007\275pBP\274\2703\303<\355v\001>\310y\324=q\317g=\250\000\233\275\030<h=\3262\007\276\242\342\371=\204\341\216=X|\261=l\363\231=\261\303\313\274\310\231\365=\216B\243>\227\036\355\274\233M\032\276l\003\037\276\004<4>\350wV\275(][=\275\3628\274U\247?\275\273K\006\276\031)\320\275d\341\247=\017T\027>T*\300\272g\033\327=.\024\">\201|\224\2756\242\306\275&\215\267=\203)\001\275\362\214\026=\010\374{\275qy\177=\261\216\345\274\007\032\216\275\306<y=k\230\200\275\216f\232=F\330^=j\223\251<K7\026\275\363\207/<\361\025\013\276\375\006\362\275\214\343\013=\n\334k<$\323\316\274\351\236\r=\326\303\021\276\237\241%>P\213\266;8\323A>!\005\036\275\r\340\010\276Ih\204\275NN\207\272\203\253h=+E\022=.\021/=\363\273!\275\360\362\207=^\224\231>\312\204\222=c|#\276\207\r8\276\270\263\264\274\215\036\301=\255\"\t\274u\331\240=V\340Q\275K\023J>\220\302\212=\305.\350=h\311\025\2752]`>)L\000\2759\013I\275o)\017\275\373\322\273=\220\221\230\274z5\227=t\363\'\275\004n\352\275\257#m<+p\014>\212\272d>z/.\276L\266\352\275\340\307\020\276.{\246\275\004\370!\275\251\332\201\275\364h\r\275 \020H\275\377\304\n\276\377:\271<3\361\255<5im=a\311\212\274\357\316\210\274\302\373\204=\260s\235=\313\366\202\275x\342\261\275oF\203=\330\264/\274B!\326\275a \211\275\3727\302\275\266\202\351\275\322}\017>\340T\345=!\214Z=\355k\033>\002\251\032=}\326\245=.\252\211\273\306\025\277<\316\255\251>\210\325\341\275}\'\333<c[\206\275S\241\200\275\302\331m=\262a\226\275\337X$\276\244R\025=!\235\214\275\215 8>K\023\347\275)^\231\275y\256*<.\r\001\276D?\216>\310\254\247\275xtT>Y\006T<\360^\034\273\204<\303\274a\273\025>\\\326\013\275\237\257\206=\344\257h=\371V\336=3Q\215=)A\265=\312\220[>{\035o=\363U\365\274\336A#\276d\377M=\244\3306\276\216\354{\267sm\023=\210\206\363=?\235\266\275 W\031\275\327\365A>\337\344-\276j\330\274>\3176\251=$\240\212>\027\372\274=u;*>\244\243\244\275\311\273\204=\023\217\232>\027<\336=\2553\240\275\267\0239\275yD\224\274\3573\230==\233\010\275\272#\305=u\325\t>\327wC<\320,\032=\\\230\272<9\334\312<\010U\243=\3123\025>\305\372.>}\221\010>\373\0258=\260VK\276\244\207\331=OB\260\275\205\265\027\275\210L{\274\275?\265\274\342\257\2039\257\017K\275\336\377\'>\301\264\317=_\232\354\274\376_\000>\212\342\007\274\220\036&\276\"\220.;\033\343\022;\323[\270=0\337\006=\255\366\204=\026\302\366\275\203\353\004>?\247\256>2\264\240=\353Zm>\233\264\316;C`\003\274[\317\250\275\245C\371\275\335\250\225\275\021:\366\273\266\n\327=\266k\002>\005\246\016\276\030\035*=C\271\274=C\216=\276\356Q9\275\357\007\224=\302\007[\275\240!\211=\375*C<\3026\221=\277pc\275f\024\022>\024\324\016>\033\303\212<\027\276?=\331\013K\275\272\206\006\275\002\021Y=\242\242\245\2740oT\274\230\206\205<l\202I\275\244\001\'=@\230\t=\n\261\377=\000\206q=\334\345\213<Tv\312<\224\220 \275O\351\031>\240\307\027=\233sT\276u\227z=C\377\037>\3420\\=\257\312\355=\257\342m\275HW\246=\335nG\276\002\003\002=\277\257\221=\356\342\373=E\316C\275\307\343\314<_\272\003\276\333\236\204\272\356=\307=z*{\274\211\242\006>\271\362\204\275\336\266\253\2754\365\324=\021\027\000\275/N\326<\005\215(>\277\263\371\275\310\251\367\273B&\031<\352nd\274B\344z;\212\373\236\275\327\266+>\360\207\035\276\361\273B=\3565\037\275J\267j>F\177\374\275\220\016(>\236\207\014\276z\261\322\275\337b|=<9\030=\377/T>\226\253n\275t6\370\275\251q\232<\324\243\n>\032\270\333<G8\244=h\237\221\275UeB\275\0147\003=\363\214\343=\251cp<\260U\027=\034\305k\276\'\341\373\275\213\340}\275J\346\212>\241\217\036\276\330cG>\376\030\037\276\2168\261\275\207\315\342\275\330/&>#3\262<]m/>\246\211\345\275@\302\227\275n\346\335=\324z\250<*\233~<(\312\306=\217\"+\276\330\332\267=\363\232h\275\370!\210\274m1\235=\020N\266\274&\367\"\276\025\364\312\274@\357\311<\241\316\233\275\321\247\250=\354S\277=F\323\010\276\340=s\275$\330\316=o\016\251=\217\205F>\200\274z=Q\227\377\275h?\226<M\367\373\274\315\371\243\275\222,\315:\214S\245\275\036\224\210\274%\346\250\273\312H1\275\304\320\212>74-;9\215\253:\r\342\010\275-\236\217\275\340\332X\275\344J\017>\332I*>\236|\207\275\247G\001<\326\246\037\276oY\225==\337=\275\274\325\023\276 b\264\274c\262\370=X\024\031=O\314x=\007\"\363<\177\020\225\276\246\025\277=\241\314\t\276v\212n=\227o*>\201\236\254=2\233\001\275\265\377\260\275\0142%\275\2637\232\275&\377^=\370n\320\274\312\331/\275/\355\206>R\345\031\274\373[\234=\316\277\037<%n\201<\365(\276\2753c1\276\2271\202\275+\317\255\275L&\352\274!\177\211=?[\220<[@\365=\037\"\346\275\352\305\235>3\227\214;VH]>\241\007\014<\242\"\210\275~\262\241;r\367\241\275\255\216\220\276i\n\255\275\351\030\202\274JA\021>!K\031>\271\306\357<9U/\276\337\314W\275G\335\026>\327\201\203=8C\014\276\370\316\204\272\300-\314=\216\341\243< \\T\276a\351\034>\330~\374\271\223\215\220\274\213#Q=\000\366\266\275\t^\231\275ZG\236;\372\272\007>j\310d>n\027Z\276dO\370\273-\010\270\273\251\353U>,\255\352=\306\260\255\274H!\025>\320<\332=\270\031\t\275\256\030N\275\213M\026\276\326RW=*\277\021\276\323\206\001\276gM\254\276`\327\233\274\262\247};R\263.;\253\327\016>\372\006G\275|E\373=\334\256\245=2[r<?7\317>\035f\312\276\002P&>\233\302\324\275C\365\023>\361k\347\2756a\256=\306MH=7\034I<\330\270<>\343\253%>\023f\241\275+\331\343\273\010\315/\275V\363\371<sG\336\275\263Y\033=\233\321\260\275\306\001\254=\004Y\241<\360\010J\274\333}i\275\303@\205=\0270A\276\255\330\017=g\332\216=\021D\311<\366\327\"=\320V>>T}\343<\200\032D>\311\277G>\252\312\226\275\243\346\373\275r\301w=\024z\231\275\'\367\356=\302\331\003\276\331<\302\271\n\271\302=\027\364G=\310\204\006>M\3054\275\030\211L=s~)\276\210\247\275\275\020\310\311=K\226\264>\243\257X>\343\256\037\276\206g\260\275\226g\033>\220i\331\274\211\276\237\274\326\013\312\275Dcw\275\306J\031>\323\343\223=\014\177\371\274\0261\027\276r~\201=\207\265\250\275\005\204\242=\343\203\231\275\215#z<\372S\216=\334\356e\275\237\335\372<\230\347\257;\246e7\275\224f\r>\332\374\t\276\273Q=<\203\261\227\275\034\3007\276R\372\270=\373qJ=s\007\276\275\230Z\017\276\177\337\245\275\313e~\275\r\267a\276Z\233P>\363\177\221>@,!<%\200\235=\333\342M\274;\224\307=Iw\200\275\3203A\274\030u\254\275\245\377\275\275\257\303\007\276x\030\204=G\034,\273?\027D\275\234\233\016\275C,\017>\307\251\334=g\336\000=\254\302\233\276S\254\002=H\221\343=.W}=\2062w=/6\005=\365\246\324=\346}Z\276\232W-\275l\370\376;\223F7>\330\357.=\301\255\321=\321\330(\274\312\351\031>.\252\013>\262\254/=Q\201)\276a,N\275\271U\360=\342\001\312\275W\325\270>\214\232\024\275#C\364\274tzJ\273S\347\027=\310D\263\273\236o\331=w[\230\275=\"\245\275\264*Q=X\256\026\276jG\300=\224\321l\276}\203-=\002KU<\314\3067>\214\275\337=\234\334|>l\323V\274\377\355\361\275\177\017\272=\020x\006>q\374`>\3129S>N\364\332\275\304\371\366=\255@\367=\004o\204=\'(\366\275\330\224]\276\304\037\213\276\355\335\333\2751\\\266=\316\327&>\306-J\276\356\277\240=\227\2219\275\3237\026>\374\021\036<y8\204\272\217\346\255\275\234A\205=\2768\010<\003\300\352\274\256\207\337=\267\316T>}\231\335<|\363\346\275u\350\371:\237\357\315\275\307\304\360=u\226\267\275~m\276=\302R\215\274n\374\254<L\322\357\275\237M\213<=m\235\274W:#\2757\277\212\275\350)h=\270\375\257=,\014\242=\264\t\217\274\316\276\206\274\023R\266\275\355\307!\275\370\260\365\275|(\025\276 \263(\276&\017\210>\337\352D\275\204L\375=\375\376\343\275\347\256\231<dH\275\272=\325\274\275\323\\\200\275A4\215\275H;<\274mL\326\275jhw=;l\241\275\277\0355>\035\303\214\274\020_\250=n\241\005\276$4\350\275\233\324\346\275\356\362\021>y\351\277\275-\242o\276\350\0314\275w\004\306\274\026\210^>c\364\230\275\\W+=\013\354U=\270\377\255=\333.L\276\265h\013>)CP<\265w\267=\220d\341<=\204i<\033\004c>(\301\016=a\300\321=$\361\322=\032a\007=]\017\270<-qL\274\373\351\352\275\0230\030\275\267\336>>\334;\006>\nT\246\275\251\261\256\275\344$0\275\243^2\274\\-{=\277\327U=x\276\226\274\260\376\236=\200B\013>\271\t\342\275k\202\204\275\226\224m=\275~\227=#\3642>\017\216!>\247\246\030\276\250H\232=\010\242~\275\237Oa\275\352GW=\370u[\276\354\307\224<\255\023]\275\3635\373\274\322\034\270=\312\333\035\275\265\004`\275\n\032\035>\177#\246\275\270\273r\2754\320\265=h\320\346\274\263\275%=UTH<\241\366\000\275\036\3332\275\223\277\215\275\000A\021>\303\366\255\275@!w>\375\014\031>\351S]=)e\252\2768\240\356<\232\212\340=B0\276\275tt\304=\251\240\034>\336\017\000\276Q\307 <1%\236>Ud.=\207\203\376>\t\0005\274\276\366\247>\272\265\260\275]\244s\274\272\200\322\274\262\370\235\275H\356#\274\026Z\215>\255\324\350<1\353U=c\335\211\2756\013\255=(\274\036\274\351\2777\275\241c\033\273\272\260\004\275#u\010>Gy\311\2752F^\276x\031\204>\262T\302\275\014\265\201\275st\005\276\r\366\r\275E\236\355=\345\205\034\276\224h\"<\243\323\033\276\223E\352;\244eW\275X5g\274+\221\177<\350\230e\275\360\225_>\030FV=\330\325(\275\330\202\001\276A\267\235=\242\304\224=l+(>l \"<\264\304\027\272is\023>\306\347\203=\313\217\321\275\003{d<\"0\032\276\231\016\037>nU\235=d\260:=\3669\264\2755\3442\275\214\257\032\276b\277\300\275\373\000\236\275<\362\374\274F\344\222\2749x\200=\363O\236\275\3143\315=!\322\000\276ja&>h\240\204\2751\314\222<VU\033>Z\016\031<\344\343\345=\202\246\263\275\240\236\357\275w\020U=\213\273\373\275\322!\021>\352\230Y=G\365\030>\360\001\230=@s\013\275d\210\360=\"\223o>\205}\013\276\250\337]=\251Z/\274Zrp\276S\030\014>\251\317(>\007\306\035\276\330\372$\276\223\367\375=By\217;b|\263=S\3205>\344}\013\276Qo\320\274\371\207\263\274$\224Y\275\372\372p=4\333;\275I\250\244=\213t\331\275z\255\323\275\304\3033>1\031\007>%6\243\274\350\254\n>\364|\r=\005Y\226=yF\266\274\353\033\n>vzW;\327\035\231\275\246X\016<f \267\275f\235N\275w\363\264=q\374\330\275\026\236A\276D3\312\2747i\243=2\033^=\236\000&>l.\311\276\005\366~=\260\243G\275\210\364\271=\214 \243>\017\017\201\275\312\356\272\275\n\022\261;\037k-\275\253\371\343=e\004\311<)\246\336=\205\354\034\276\226h\301=\315[\260= #\361=e\ne\276\233}\314\274\313ad\275U\361d=\302w\307=TuY\271?\355\217>\260\200\310>(\026g>\315|\037\276\217\016\020>O<x\275b\332\032\275\366\337\374\274EG\r\275{\214~\275o0\341=\367\353\333\275\257\216\371\274\033\256\034=\331\027\354<\030\335G\272\354\234\023\276\240\256<\275\030\000\223<\264o\303<\266v1>\302\177\">s\221\262=\357g\336<\240\0253\276b\002\315=\242]\364;\205\264?>\201n\302\275\365\353\243\274\236\334<=\301\"\007\276\344\254\033>\350w\244\274\265^\026\275=n1\276\375\275N\276\373\306*\275\363\340\305\275[\300b<b\256\232=]\355\330=\032\204*>\350\"X\274\257\257\302\276H\274\263:P\307\263\276u\014 >\207K\320>a\205\001=t\323\226\276\342\245\324\275J\"\004=\234\352\352\274\035x\364\275\302h\007\276z\367\364= \231\376=\226)\267\275\372\377\371=\333;z=\037\260\327<\010w\004\276D\326\342=\253\361\002\276,\207\\\275\343:\372<Uz\031\276\005\250R=\036\316 \276H\200\316=\341\215\n>?`$>p\332*>\\\261l\275\2462\363\273@\366\224\274\374R]=\036\037\372\275\275m\343=\ny\300\275\302G\372\275\264\000\276\275\377\312\346=\0077a=\300\323w>\3372\256=?i-<mU\275<\324\r\270\275\305\224N=@N\311=.\214!>y\220\204:\003\212N\276{\362\022\275\374\322\307\274s7\307\275em\234\275\3311\310\274\260\271\315<\022\321k\275\221\206\251\274\311m\361\275N(\247=\344\243\003>(p%=\330\244\216\274]l\302\275\000\364\310<\345\250\221=2\177\350=S#\251=\2719\000\276\3265\210=x\025C=g\355\311= \202\314<7\034\340\274\361\332\273=\357\0213>\223[@\275\220E,>Q\330b>\236\342\254=\301\247#\276\230\346\360<\265S\231\275\260\373\027>\'\3552=\251\177\250\275\273\256\344=\222:]\275)\243\264\275\301t\377\275\005\366\246\276\035\023f\274\262\217\311=wy*\274\347\221\344\275\n\016\217=\014\242\241=\027\244l<\317\372o\2752c\366=s\271\241>\251\364\020?\n\303 =i\232\311=\236<\010\276\271\363(\276\274\260d>\376\254_\276\216\251\320\275\006\333R>z63>v\251\314;]c\247\275\346\250\264\272\345mY=e=\037\275-\332\001\273\2467\262\275\035\365\032\275!\353\035=9\246><\016\255\360<\221\243\254=\275\177\263=\323q\344<\233\302D>G`\350\274,:\352\275\374\345c<\016\005\014\275S\007\206\275\200\343\233\272\307/P=\034\375\314\275e\222\023=\rB\252\275\323\217\035>\262\035s>\241\204%\276\212{\000\276:\344\271\275\034\261\022>\354\272\263\275\247\250\204=\\\312w\276C\304P>\275E\007\276S~\264>\306\276\224=\352\034 \276,u\005=\0058\007=%J\021\276BQy\275\314\223\336=\032x\216\275T\315\362\275\236.\036\274~\214.>P\314\2268\260\215&>\200:\336=\027b\345\274\213u\206\275\370\252\005\276\363i4\276\313 \035\276@\030\226>"
      }
    }
  }
}
node {
  name: "b3"
  op: "Const"
  attr {
    key: "dtype"
    value {
      type: DT_FLOAT
    }
  }
  attr {
    key: "value"
    value {
      tensor {
        dtype: DT_FLOAT
        tensor_shape {
          dim {
            size: 12
          }
        }
        tensor_content: "\317{\360\273\002L\214\273@W9;\373\322\201:Q\037\227:\301l]\273T\364\017=\354\334W;N\331\\;\326\277[;\364\367\254\274D\032\020\274"
      }
    }
  }
}
node {
  name: "f3"
  op: "Const"
  attr {
    key: "dtype"
    value {
      type: DT_FLOAT
    }
  }
  attr {
    key: "value"
    value {
      tensor {
        dtype: DT_FLOAT
        tensor_shape {
          dim {
            size: 3
          }
          dim {
            size: 3
          }
          dim {
            size: 12
          }
          dim {
            size: 12
          }
        }
        tensor_content: "\240<\200\275\302\3762>P\022\033\2758N\240=6\225\202=?\220\201>N(\027=aI\014>\346f\244=\026\010\000\274}s\257=0\323\002\276IX\237\273M+\'=w!\310\275\342\2269<\202\357\025>\026\341\036\276\252r,\276BD\340\275\255\306\233\275\305z\241<\310\007\361=\r\335\234=i\273\364<\271$\030>\021\231\235\275\265\320\250<0\205\242\274\210\302\337\274\217\344\032=\243\215\241<#\367\240\275)j\020\275pg\302<\020.h=o\001T\275R\257\212>\r\017[\276\225\346\200>\005e\250<\207F\310<\t\270\336=+\314\243>\243\257`\275\373\224\335<\002\003\026>\347\014\333\275\230\247{\275\325[\035>f~\007<\254\316\204\275\352\265\304=\275\274\247\275\016\r\331\275\350\201\260=\317\"3=\347\221\244=\371\330E>H\261\206\275\212\344G<E}d\275Gy\021>k\325\307\275\220\352\325\275\016z)<w\323\344<I\223W=c\025\241<\375\305\325<Bw\030\276\005\0050<0\322\243=t\376\037\274\351V0\2759[.<\330y\200=\014\242\373\275\\\263\302\274\300V\312=\007\335\222\275\317\336\246\275.\025?>R\245A\275)\310\362\275\017\214\215\275\264>\215;\017#\\<\210!Y>\370\212\303=\005=\231=\217\024I=\035b=\273\r\252\205=pB\225<\r\201\300<\343\320\255=\267:|=n\204r\275\347/\371<\352\217\010\275\264\312\221\275J/\014=p{k<\240TP\275\215\220\201=\300\177\032=\001\320i;e]1\275\364\314\031\275\203\231\003\276\332\202\026\276\336\220f\275\256\276)\275?/\323<&\321\240\276UA\021\276\3553\014\276\233\001\n\274W\345_\276\303q\272\275PN1\276}\327\373=`\233\261\275\254E\203=i\020\356<^\003\244=C@\217\275)\261\"\276\272\213\267;\204m\230\272\337i\272<?f\001>\023bw;\276z\213\275D\351\013\276!\343\035\275\373\013\203<i\252\276\275\241\274\013>u\021\303=\344\3314\276\363\244<\274\215\267\257\275\000\031\316=\267\\R=M|Q=<$E=\340\207\034\275!n\220<\267\3148\276\331\n%;\362\261\213=\306T)\275@#\337<+!\334\275\313%\267=\013\364]\276\022\271s=\253\006\375\274^\230\342\274\344v\342\273\254\tS\275T\222\220\276,\376\334<X\026\275\275\314\340\266\275\314Lv=\221y#\275:\360\223;\304\r\235\275\264\003e\275T\340;\276n\235\357=\"5\221\274J\370\334<W\033A\275\361|\200=\231\t\n\276\th\220\274\313\317\207=\363\254#\275Z]0=\236!\226=\030 4\274\252\3166=\206\247\301<\327\r\367\274Om\203=\036\003\327\275gU\301\275\310\345\022=\355L\250\275\226e*\2760?\376\275p\0279<c\332\307=\021Mg\276th\304=[\036\200\276\364d\325\275gif=\262\210:>\223\2274<\277\362\217\275\257\232t=V\336k=\340L\n=\030,\220<\360\014\334=\271\221V\276\323)->\021\276H\275@f\301<\220\033\234<\263\023\340;\355\370\324=\277\002\256=\361\227@>\274\325H=\355\270\370<\220\263\273\275\262\211\303\276\230~d=\010\204\267<$_\324\275\"J\265\275\266\300\027\275z\022\027>}\357\201=\253\250\303<\225\"\231=\224\244\242\275\276\213\251\273\214\273\022\276!\013\237\275\342\362\273:\335\360z\275\212\021\333\275U6\211\274#<\202=\2727\245\275\002\307\246=\215\217\004>oZ\270>\\:Z>\021\361!\274\250\247\264\275\t\003\212=b\220&\276\357\316\031\275\021\351\221<;\352J\273\354\316!=\335\203c>\234\2240=UMm>\267 Q=\226\344\365\274g\340\027\276\236\3547\275\342\277 \275)\210u>\206\2738\275L\205&;|d\203=\357\246\013>\270\262\001\275=\255\341=\005\276\350\275\027nE>,\016\220\276\260\225\301\275\377\264\034>B\304\007=`\360\013>\302p\303\275\250\320+>\271\\ =\306\2403\275\377\264\305=i\n\373=%\225\000>TK\250<j\212\007>P\305\004\276\2519\006\276\261\232\341=km\375;N\003\347=x\357\205\274\247P\333\275h)\236=j\211\272\275\002d\360=\365y\235=\261.\224=Z\210\253\273\310\320\006=6*r\275P\324\232=4\223\n>\r\026\002\276m\351I<|j\014\276\253\t\224\273\236P\021<[\014\217>\317\226\317=\323o\233\276\2409\006\274\345,\032>\375\244\264\275p?\262<\n\006\005\276\321\266B\275\274\315q\273m@\332\275\373<\312;\002\332p\275\271\316(\275+\373\325<\002B\t>c\n7\276j\004\264=\236yh=\r\275\326=m\0360>\t*\310<\001\345\025=\r\350\005;\275 K=M\322\023\275\024\033\217\275\365C>\276^:\320=cw\001>\207\r\252\275\207\250E=\235\234\235=\357\204Q;C\337\001=\rj\226=I?B\275\021T\304\275\207!\274\274\223\305\n;\334\364R>7\223\214\275y\301\376=r\375\374;\014\n\321\274j\020C>\235\371\010>\305)\200\276\r\225(=\236\245\024\276v\372r\275D\t\225=^\375\r;8\013p\275\300$n>\372q\364=6\013\267=8g\035\276\377|\000>\214\341\001>8\330\216:\3450\313\275\227\355_=\337i\374\2754\246k\275\'\203f=\223PZ\276\'\234\231\273_\030\221<\034d\307=\204\264W>u\240s=4RC>\367\250!=\273\327L\276\252\372 <4\377+\276&Je>\227\212\265\275\233b\000\275\003N\222\275\360\343\357=\3654\321=\271s\367\275E\230t=\003\2648>\301\023\374\275\245,\301\275\300\251\372=\207\240\243\275\206\334\360\275\366e\001\276\226\365\035\275\302\372\t>\355\3544\276_\026\324\274\2558r\274\304\024-=?\3231\274t\314a\275\014\260!=\215y\235<k\375L\276\315n\t=\372\310\204;dt.=1\344E\276\232\235\355\275m\261\370=\256\356$\276\362` \275\315\3149<\257J\324=\027]0\275\330\312\266\274AIq\275&D\251\270\'\177*\276}\000\220=\027\020\212<\325\274\010\2749\316-\2741`\247<\0210\004<\352\351\373\275\373m\310=Vj,\276g\344i\276>\"+>n\2340\276\337\233\205\274\365\251\002>\r\342\r>b\330\260=\034t\211\275ma\002\276\354\314h\276g\250\244\275\330Z\341=\353\3356>:\264x\274\276\311\306<\373\000\300=8\"\032\276A\252\003=Y\246\014>\336\036\207\275\25096>:\004\373=\200\307\032=r*k>\350\005\017\274\360\001\336\275<4&=]\313\212=\350\212\323<\\\267\271\274\253 \335=Jr\t\274!\035\253=\322\300S\276\266\373I\275w\222\020;\215\3220\276\025\263\332=\027\327\214=\342\2470>\372\262V\275\234\225?=\305\267^=\362\362a\276@h(\276\r\035r<\205P\341\275\220\264c\275\362\036N>\371]!\276\344I\311\273\253\"\337\273]?\205\276\323\273\270\276\026&\321\275x\205)\275\037\026\352\274\037\373\336=f\275\005=\275x\374\274\203\317*=\257\315\031=\034\334+\275\344\353\026\275\265\225\257\274?-\310\275\232\374\023\276\332\305U>\245B4>\027W+\275_\371\030\276\327\302U>\322YC;zn\r\276e\215\007\276Vi\037\275Cs\207\274\204H\r\276\357\262\275=\306\223\322=^\364\326<:\255\021\2764k\020\276@\020\212\275\230\370\332=\264\344\335\275\275\366E\276\233\005&=}N\022\272\367=\313<\275\306\023\274WE\320=\365\236 =J\027\335=}YK=\036\204\235<\023\002\034\276D\013F=W8\001>\rK\360=\212\243\234\273x\026\n>\t\330\232\275U\230\037>\177\273\310\274\315\303\276=$[\325\274\335\226V=\226\016\354\275\266a\000>\260w^=\320#\201=Yd\242\275\203\323(=e%\310\274y\2345<\373\020\207=\360\007\034\275\002>\310\275\275F\206=#Lq\274\016Z\031\276\360\237\357<a`\357\274\312D[\276\030\270\331\275\376\364B\276v\326\031>\227w\200=)\\x\274\363\252\034\276d\202\022=\2212\340=\0017#>Jc\t\276\275\224c=B)O=\247\367\206\275\330\230l=\356\"\205\276#\2114\275Fp\302=\231\322\307\275\002\032\020\274\0264\213=\237\270<=X\273\327\275\230L\031\274\t\312\342\275fX\014\275\246\247\232\274\235\275\037\275\372\267*\272\236I\354=}3\306=\002\037\352\275\233\315\001>\023_\312<\222\n5\275:A?\275E\316:\276Qh\277:\360\352{\276g\355\356<M^\274=NS\001\276W*\342==\036\205\276;-\243\273Q\221\303\275\000|\207\275\0340\256=:\023\367\275\261\025[=* |=\370\304\245=\030o6\275\267\327\201>\265N\335=\205\363\226\275\322N\342\275\251\206\373\275:\303\267\275d%S\275\307M\224=\270\246\373<h\232$>\0218t;M\315V\275\355\217\037>P\254B\276\306@K\2764\376\034=GY\207\275\235\352\253<Uo\211\275\311\251B\276\002h\340=\023o\325\275\340\300Y\275o\003/>\367\275\374\275$\rL>\210\037\373<\273\201\236=\t\033\372\274\354\276\337\274\340/\267\274T\234S>z\003J=\271L\235\275-\0172>a\240q\274\'al>\2342\035\275\377\310P\2753\211\232=Q\250\372<\213\361p=Fx\t>K\267a=zZe>\265\321.=\034d\263\275\244\024\013>K\206\206\276zq\374=\327\321V>8\2156=\377H\227<\310\t\355\2748\377\254=j\217x>s0\301\275\241j:\275\177\006\313\275\2113\023\276:j\275\273\327\261\351=\220\357\217=E\003\357\275W\261B>\211\363\233\275xQc\276\004\301\320\275\361\356\311\274T\260\354\275\236i\237\275-\370\302\275\2737->\037\223\213\274H\276\306=^\200R>\270\003R<\341\330U>H\034h\276i\266[=\304\243\036\276\253\314\321=\317V\217\275\317\206\373=d\247-\276o>A\276\311/*\275R\021\264=<Y\024\2769\350\031>\374-s\276\331\237r\276/\355x\274\2140\324=\r\320\370\274\366.\013>\356%\360\273\014\374\035>\216\242Y\271\252\205\270=\031c\274\275bv\014\276\272\305t>u\332\235>\001\025I=\201k~=\276\234\233=\205\n\311<\232[\001>\025r\264=\231\037\361=rx\237\274\035\2464=\220\304\024\275\231D(\273\314\030;\274\014\034\002\275\205\264h=\215\026\233=P\200\327<\362\312\210\276b\t\037>I\340\n>#\311\305\276O3\005\276\227\035\356=M\335~>/\347\237=p*\204=-,R=O\200;\276)\353\264\275\373\254\355=\260fu\2753\243\307=|\333\362<\272\030\364=K{\231=\306G\334<\264t\026>n\r4\275Z\364\240\275A]`=\0210i>\025\341\021<\200\014\020\276{\213L>\237\315-\275,\342\310=\320L\251=\302\311|=\256\\\257\275\212\205\220==\232(=\221E\260\275\177\326G\275\263\262\224\275h\026\254\275\207\201\351<]F\234\275!\315\226=\246\320\201=\255\204\t>\353?~=\310@\006\276\346\326~\275D6\231\275_\203\023>o!\234<\211\"\256=\355\033\213>|\332u<Y\367\231=l\241u>v\246\340\275\263\006\301=3\267\313=\267\317{\276\320\"\320\275~\022\240<\233h\234==\316\265=\017}\260=9\366\246\275\017\206\326\2756\026\'\274\346lj\274+\345\324\274\346\247\352=\024\244\211=Dx8>\264\257!<\312i\323<z\373\234\273F.\\\275n\216\333<\023\004\261<\275\022\353=\335\362==-\263\210=\030\017\000\275\373\\\227\273\367\300\365=\222\352\273\274<\307|>\005\213\021>Kg\313=0\336>>\242\033\037=I\204\006\275\256bF\275\275\320\374=\307`\247=\231\016(>\ru\017<{T1\275\370\355O<\330\230\300\275\016\265\245\275\272\364\344\275.\013\234;f i>\034j\006=XO%\276\336\227\000\276[\260m>N\3313<n\330\342\275\212\375\241<ik\277=\210B1=}\027\242=\007\277\342\274v\2072==\233\314\275\252\266\210\276\227\275\217\275\035c\204<\014\200\344\275o\251\336=\362\235\263=\263\305$\274\301\367e<\210\374\036>\360}\232=\360\215\220\273\036\217d\275\t\343C>\252\374\311=dz\306\275\210\327\021>\"{\200=\020\"z\275\346\333p=\031\001\354\275e\331-\275\271\306L>qp\236\275\\sQ\2755\007\336\275\376\367\257=\277\251\010\276o\2725\276F\303B=\025(\272\274\210\236N>8\313\315\275\321\266\344=~r\274=\257d1<\031\211\314=9!\374\2740\010\213\274i|\350\275X\213c\276\037\322\377=.N\270<\263X\022=\023\201\325\272\017\247\253=\276\354\310\275=\216|>k\307\027>\225\316\365<&\365\274=3\253\316;\364\t(\275|\n\317\275\323\n\216=\001)\274=l\355C\276\364!\235=:!\246\274\'P\352\274\242\025\214\274\236a\000=\3451\372\275\334\276\003>\247MO\275\t\313\312\275\220\000\361=\350b\262=\346 \202=\372\333\223\272Nu\226<Qv\205\275\260\264\324\275\275\3534=\317\004-\276<t\237\275N\306\306=g\2032=\323o#<\017\336,>\201\243\033>\226\237\313;\276\274\n;\320^\026>\"\204$\276)S\334<\246\206\263=bf\251=z\211o\275 3\257=U\304\311=\323\365E\275y\315V\275n;\001\276;k\024\276rm\200<\226g,=+\t?>B\374P\275fSs\276\262\357\210;\213Pw=\266\243\342\275Z\273\234\275\274\314\264<\022\315\201\276\311\nL>\371\351\006>j\315r=Dt\305=\256\336Q=\020\026#=\313\246\210>\215\027\277<\204\375{<vy\370<\360\221d\276\364\303\217>\223\332\016=\025\000\371=b\313!\276\273/\246\275\206\256\351=\320\025t=\nD\020>\302h\000=\r\\V\275\217\215H\275VE5>?\323&\273\037\366-=\3138/>3\264\177=\272\227\035>\3111\005>\003\364\351\275\315\204\023\275\214\335.\274\232\022\305\275\240\265\316\274\304\335\341\275\014\246$>\206\374j\275\"g\232=L\253\231\275lO`>\262Xm==[h;j\010\033=\232J\306=\027\376e=\366\252,\276:T\330=\255\351\223;g\216\213=\207J_\276\325\2071\276e!\276=\352T\364\275\2675\365\275c\372<\274z\032\314\2752!\236=\277\376\271\275\265\336\244<\237\233C\275\300\274\326=\205\252\225<Y\256\241<\3525\275\275\353\310!\274\230\270\250\275\037]\016\275\273x\366<s\005*\275\213\331r<w\226\204<\013\243\347\2753\026q=Q\207\265\275\320A\361=~y\217=o`\010>m\353F\275\253\353\364\275\013\242\001\276\261[\337<\277^\211= \035[\2755\322\320\275\'r\276\274S\016\204\275@j\250<A\031\000=\345F(>a\033\217=\250\332\037\276\365\322\367=8h\274\275\236u\000\275\t\233u<\330\314\027\275g\247\320=\375\341\324<\360\313W\275\311\033\352=\256F\266\275\341\256\006>\353j\020\276\351c\346\275}\243\257=]\262\212\275L\303Z\274v\305\330<\304\001=>+\313\024;\366\366W=\274\273\336\273U\3125<\377\333\334\275\362K\030\276 !}\275\221\204\270\275;\007L\276v(W>PPX=\317v\340\275zx\346<-m\261\275r\203&>\273\331r\274\277\345\300\272\343A\251\275\024\023\022\276~{3\276\255]\366\2746\231\312\274p\227\363=\233G\310<\254\307\243\2751\\\346\275\0057\341\274\236\373S\275\250\352\357\275{W\310=\326j\267\273\257Z\262\2753\177\274\274\376cO<\264\'\237=\031z\315\275\035\200\006\276\254B\271=g\373\004\275@*p<\313\024L\275nhz\275\325\257\200=\004\215C\275\216\252\330\275\341\2705\275\036e\n\276\375\365\350\275g\275\240>\037\3406=\322J\025\274}\232x<\\7\340\275\302~\310\274\200\222\273:\224\246?<\221\354 \276r\0261=\271\023O>\034\304#\275\\\360\314={nl\275\345\023\202>\363\354*>\266\245=\275n\214.\274\326\314\340<\366\274\364<\3169\007\276L\250\206\276\t-\375\275z\231\300\273\320@>>\265O\362\275\223\356\r\276U^\021\274\223\026H=\345\031\245\272_*\274=D\353\267\275\2511\014\275\010a\235>\301\200\235\274h\235\013\275\347\203\223=\366\257\244=\254-8>\223\243#\276\033\n\361=\325q\202<$\031\344\275\203%:\275\313\212\346\274\256\346\242;\352\342Q\274\334\366W\275\244\021\r=\267\200\376\275_\246\024>f\010/=\010\021\177\274\351\314\320\275\'\226\213\275\306b\347\274\222\021\030>\244\025\027<\342\356S\276\215E\026>\221]Z\276\303iZ>\036\206\307>\225H\265\274\0051\017>\005\336\213\275%/*\275{\000\036>B\254\003\275e\274M<\312\254\313=U\311O=+\326\030>\031\260\306\270\231\334\214=\270\237V>m\302\021=\014_)\276\006\262\223\275\003I\324=\236?1\275\320\360\007=$\370k<\034\340S\273\025\233\376=z\303Z=Te\">G\336(>@\351\025\275\273\335\355=\205\272\\=}\0253>\321r\213=\335m\247=\007P\226=\252!\320\275D\001\326\2757\345\201<\177\377\375\2750\265&>\356P\">\202\016\255\275\321D\206\275\016\024\205\275\035a\"=E\371#\275\221\253e\274\312\377\300=\271\006\227\275~L\267<0\'$>\236\352\364=\372\377\000\276\374\263\230\275zTP>\214A\360<\251\310c\274\327\021\336\274\251t\203\275?[f\275\rP\367=0\327\027>Q\200*=R\024\010>\233\227\223\2752\224\315\274\271\224\236\275M\264\006=\311>\016\276i\305\000><<\211=\320L\312\275\230Q\023>\353Dc\275\356\317\216\275\302+\335=\304\233\014=9\241*>\224\236\"\276\341\005~=\033<\003=o\301\035\274\222\001\024\276Q\233n\2750:\326;\216\347/>e\261\'=\030?\244=\024\347k=\277A\005\276\242\217X;\345\273\016\276\257\243\030\276\261*\251\275\360\367\300\274dl\330<\264\301)\275]\344\013=\236,\226=a\216:<\3245.>5\345\352\274\317\227\201=V\307\177\275\222\234\307;,v\001\276]\221\026\276\033c_=rU\337\275\266\240M>M\217\001>\024A\034>\013+,\275\363w@\276\341\304\237\275\027,\003\275%\205Y\276j9X\275\330\377@>\006\030\200\275X\214\304<mbo<\210`\256=)\233\377\274og\r=\234\356\226<\311I$>\234\334\335="
      }
    }
  }
}
node {
  name: "b8"
  op: "Const"
  attr {
    key: "dtype"
    value {
      type: DT_FLOAT
    }
  }
  attr {
    key: "value"
    value {
      tensor {
        dtype: DT_FLOAT
        tensor_shape {
          dim {
            size: 1
          }
        }
        float_val: 0.02693554
      }
    }
  }
}
node {
  name: "b7"
  op: "Const"
  attr {
    key: "dtype"
    value {
      type: DT_FLOAT
    }
  }
  attr {
    key: "value"
    value {
      tensor {
        dtype: DT_FLOAT
        tensor_shape {
          dim {
            size: 56
          }
        }
        tensor_content: "\333\341E\274\210\332\257<7;{<\311.X\272\310\032\271\272\036\360\231\274\344/\335\274,\277\200\2746\231\275\274~\301v<\225\253\033=\251\316,\275|\226\237\274\0367\233\273\262}\035<eJ\274<\232S\223\271\364^T<~\207\252<o\366\r\275-\311m\274Kg\206;\306K\373\274N\351\201\274\026\333\236\274\303:\321<*D\241\274\267\373%\275\221\037\264\274r\2214<\230z@\274\2054\316<\343\3771<\247I\222<Qp\216<\014\254\276<\014H\267<\253\227\324</\260\334\274\3215/\275\262\to\274\025\205\326<>\371\342<l\374\362\274>\2166\274\232a\032\275s\013\245\274,\310\343<\207\'\300<\271\256\341\274\336A\352<-&\275\274U\324\262<\223\203\311\274\367\275:\275G\367\255;"
      }
    }
  }
}
node {
  name: "b2"
  op: "Const"
  attr {
    key: "dtype"
    value {
      type: DT_FLOAT
    }
  }
  attr {
    key: "value"
    value {
      tensor {
        dtype: DT_FLOAT
        tensor_shape {
          dim {
            size: 12
          }
        }
        tensor_content: "\341\025=\273\335\361-=\261Bz\272\237\321\357\271\321\230I;\tn\033\273\333[\026\272\177D\2149}++\274V\202)=\245\336\035=V\343\246;"
      }
    }
  }
}
node {
  name: "b1"
  op: "Const"
  attr {
    key: "dtype"
    value {
      type: DT_FLOAT
    }
  }
  attr {
    key: "value"
    value {
      tensor {
        dtype: DT_FLOAT
        tensor_shape {
          dim {
            size: 56
          }
        }
        tensor_content: "\361Y\305\273\352\347$\2742\0038;n\363N\273$\361\215=\375\253\r=G\177J<\321\002U\273\350\361\213\274\210\327\232;\260\226\226<\256\003S\274\222\367\013\274\247\2607\273\300C\231\274\333\226\275;\343` \274U\225\246<ZCb\273\t9/\275w-\211\274\345k0<j\372\317;\022\003<\274\177G/<W\272\241<oJ\361;\202\245K<\363\276p\270a6x\274\0012\371\2733V(<\250\247\034\274\223\213\177\274\301\030\362\273\206a\003=\3323\211;\213\277\203\273t\031\361\273<\306\234\2745\031\320\273Vr|=\206\334!<Y\222\351:\022\217\354\273F\026=\274\350\\1\273\342f\237<\342\376\031;\264a\327\273\025\256\275;\307\236\342\273hn\202\274#\344j;\214\302\"\274\376\005S\274"
      }
    }
  }
}
node {
  name: "f8"
  op: "Const"
  attr {
    key: "dtype"
    value {
      type: DT_FLOAT
    }
  }
  attr {
    key: "value"
    value {
      tensor {
        dtype: DT_FLOAT
        tensor_shape {
          dim {
            size: 1
          }
          dim {
            size: 1
          }
          dim {
            size: 56
          }
          dim {
            size: 16
          }
        }
        tensor_content: "(\242\013\276\375\263\007\276\"\362\321;1<\377\273\256\004\335\274m\365\275<\274s\010\275\242\365\374\274Qy\241\274\343\267\314=mT6\275z\365)\276\307Y\226\275\210\2421\275\304!\020\273\272\351\350=\267!\027>b\300\245\275\275)N\276\236\204\215\275F\260\016>J\223\337<\030\335\026>\331\225\250<\200#\037\276\033~0=\356\036<<\313B\330=\0176L>D\035\026=D\325\312=\206\030\250<\026\207\270<\220\234\370;\351\216M>\367\270\217>\037.\016=|\237\022=\317\033]\274[g\266\275tP!>b8\234\275\233\261.<N\363\243;1:t\275\007\215,\275}\001\033>\020\027\333=n\207\004=\\\010[=\210?-\275\261\030\216\275\363\373\264=\366,<\276\253\221\315\275\237\234\323=\226/\032=\232\010.\275\244j\225\275-\347\320\2757\264\232\274\343\251\371\273FzY\274\344\312\206\275\2459\030\276\353_s\275\362\322V\276!\215\313\274\371\202\361\275\212\301\341\273k\245R>=\2027>7\225;>\275\303H>\316\317M\275\026L\255\275`O\207\275V\262\205\275a\022&\276\030 \353=\244I\3018\213\331*\276n\314\000\275\t1\254<b\207z<}FO\274e\222\223\275\353\371\'>\306\365\365\275{\267\242\273\273v\231\275\031\007\026<\324M]\276\272\213\373\275f\213\325\275~\2663=\270\275\217\275>\"}\274\216\003Z\274\010\375\n=\237<\003>@\240\342\275\026\326\202\275\354\251\337\274\313\350\034>\214\321\311\275\274p\327\275HS\316\275\034\331\204\275\272f\225\276\027\351\356=\030\313\307\27574\230\275\361\270\'<V\315\350\274\035W\030=\237\262\242\2740!\352<\311\214\364<\257\364\235\275\255,\221\273\2722\256\275\275_y\276\361\025Z<\231\344\026\274\000\342\275\275\211\207\210\273H\315\344\275W\003\206>@\331\300=|c\000>\3124G\276\005\337\245=\307t\r\276\350\224\245<\377\247\200=\371\300\340\274\021k/\276\320\'d<\351\215\266\275\231/\277\275\202,\006\275\322&D>\274\237\315\274\200\013\022>KJ/=0\344\316<\212\311\261<\352W\003>\277b\014>\325\271\021=\244\232\210\271\027\341_>\303M\302=\004\317\">\265\265\037\276-?G>\271\034 >\267\217+<\007h =\210)\251=\266j\215<\032#\236=\275\241W=\271Sm\275G+\321;I\203.\275-\276\003>\035A\243=9=\214=\340\363\352\275\363QF>\260k$=\265\337\340\275}b\025\275\2020\256<l\217\021\276\271\207n>\337\217\237<\205\3471\275H:\025\274P%\204=\253\017\326\275\301\350\321\275\000\241\236\275\371\\\204\274zK0\276\013H\256=\305pd<\311&\031\276)\006P\276\207\335\253=\210\006\004\276\014c\201\276S\310\035<\327\337\276;\007!\312\275\264\000F\275\026\200V\275J)b\275\2625\255=\334\356\242\275\354\270\305=\302\021\243\275\237\316\335\275:\211*=p\022\331\275\023\326\221\275<\024\004>\226\247\t=\301\375\371<\025\033\347\275 \235\217=2\326)\276U\002\371;\323r\360\274\372\220\202\275\303_\n\276\210\335\250\275V\233\227<U/\375\275\274\246\262\275\177S\270\274;\337\251\273\303+\243\275\265\276\215\2732{\010=0\006\255<~\212\234\275\240{\252=\330\001\020=\223R\215\275\304\020\252\275Ke\223\275\2762\267=\225\316\371=\240\335\006>}\016\221\274:\021|=\025\211\r\275\364\036\260\275R\026\230=e\271\222\275\030t\206\275l*\376\273T7\034=q\212\312=\360\016\315\271\n@\250\275\335T@\275\022\201\364<\305\361\240\273\340\365\216\271\031\353\340\274\346\377\331\273\r5\001=#\266D>\2736\212<\005\362k\274\322\016[<\222\233<\274nQ\340:\002\004\223=No*\276\257\257[<j\010\201=\272\023H\275\211l\177\275\370\244$=\334\r\r>\276\202\307=\341$\362<\303\246\036>*\375\253\274\313\373\340==\302>>\033$5=\'M\351\275>&\247\275)\t\226\275\265\376\317\275T\267\351;\354l\350\275\217\300/>\331J&=5\332Y>\325\032\243\272/\310\007>\231\352\324=)\344j=\252\2533=\315\214\003>\265\363)>:\326\037\275]q\374=z\211\000<\356\263\231<\212!\014<\367 0<\010\255\262<\323-M>R\244W\275\010\232\367=\215\000\006=\226\014\273=9\377J=\020$\255</O\020\276\344\001\251\275\347\236\320\275\237Q\254=\316J\222=\320!\301=\355n\331\273\366lY;%\266\'\276\374\345\273=_\302o\275\210`\246=\367y\303=.&\t\274\242f\223\275|)\027=)\346==X\r\004\276?\371\256<\r\353)\275\346\325H\274\305\027\n=\241hO\2751\302/\275\005\2064\276\222\240\233=x\375\270\274\347b\271\275\274\371)\276\243/\036\275(G2>F\215\305=\310G}=I\334)\274\340\327\360=\0147\354\275{$\250\274oY\001>\267h\254<\262\342==f\304\020;F\264\366=o\332j\275\326\316\240\275^k\020>\n\223\255\2753\270\242\275-r\357\275\263\020\002\276\316\0203\276mg:<\362\254;=-\213L\275\361\251V\274\253\200\006>\335\322\242=\243\375\352=\304{(\275\334e\037\276\271\304\r>w\305\032\276\264\033\323\275B\361\252\275\031\277\273\275^\326\274=1K\034\276\331\345,\274h?\232\275S-9\276\"4\010=8x\272\275\355Zo\275\2708\031>t\316.\275G\257M\276C\177\001\276\222\371\232=\211\256\007\276L\242\334\274=3.=\016\331\201=\237*\035\276\0109\000\276\362\207$;\211\036\233=\360&\345\275b-8=\ra4\275A\211\323\275*\265\t\276\205g\265\272\314*\216\275\336B\226\275\237Z\365=\274U\031>\277\016\356=\336\243\341=\030nE\275\265\260\214<hhD>\234\277\000\276\275\203\322<\345\306\321=\272\206\367=}\263\016<\336\235~\274-c\024>\263H\235\275\233M\223=\023p\010\276g\364\255\275:3+\276\201\317\372=\333xd\275G\220\273\275\217\232[<\337\245k\275\031\216\230\274\213\013\222=\211\225\024>rE\303\274\324\322\344\275g\275\254\275\342\206\037=\372\227Q\275)\n\n\276b\200\253; \307h=\214a*=:\225\0057\232\216&\275\263\0371=\236\213,\276\244\360F\276e\200;\276f!\206\274ji\327=\032\203\230\275\250\026\t\276\230\273\320\274\222_p\275\223\201\223\274\024\'\322\275\3161 =)\002\213\2755<V\274\361\022\227>\006\320\t\276\035\262&=\331\206\251\274\261*\317;\233\273\200\275\367\250\271\273v\241#:.GV\275\227\3074=;\340\205\275\035\264Y>0C\255=G{\020\275\207\320\255\274\212P\365\275\2038~\273@\277\211=\346K\361\275^}\027>7C\t\276\303\272C\275+\270L\276\304$\375<\233\277\010\275S\316\226=\370&\241\275[R\343=\312\357\333\275\025\235U\2762\215b\274.lG\275\274\201\010\274\247,\"<\024\220\035\2753\313\314;\016^\237\275\010\315;\276\300y\177\274 2\033\275\246p\367;\320\244\251\275[\020\036=e\303{\275d\274\373< \022\354\273\217/^=\2346\013<\025\210Y>\017]\222\275\311\333\202<\245\322\370=[~\261=\020\316\000\272niN=\273\304H=\251,\227;\232*\013\276\200T\357=\221<\326\275\312\316o=\361?1>\252\332e=\263\0342=\317\365\274=\356\274\004\275\032\200\025\274\204\010\203<sU\270=\360n3\274\212\\,=\311\";>\201\0179;\275\303?>YG%>\251><>\000\226\230=\207{+=0D@\275f\003\261\275+-\273\275\214\341\242=\036n1>\360=\000\276\320\314o\275\321W\233<\"\312\200\274\244?\374\275\215@\033\276\371\335\375=40\"=\313\236\262=\016\326p=\010\334\226=\330\201\004\274\272I\261=\010\231F\275y\267Y\274\356\266\344\274\341\234\362<\253t\033=\232\n\250\274)\n!\275\371\002\260\274dMZ=\215\364\311\274\354\\\232\275\010\236P=\333\302\334=\013M\264\275\343\217H\276\273\357\177>lU\244=@\275\243=\2440\332;C[`>\222\344\223=\227tB\275\307,\356<\002o\005>t\024\223\274\270\255\031\274d\377w=}\225,>:x+>\353G\322=\366\254\034>b0h=\354\310\272=],\316=\323\362\303<\363\365\205=\210(\333\275\336i!<\031\366\254=\234\264#=\"ih=\0377L>\203\032\021=\237| >\333\324@>\277>\232>j3\337\275\216xV\274$\017\261=\334\306]>x\356<>g\025y\2747b\376=\010V\315=\204:D\275\375\257\306=\206\221h=o\003=>\3110\004<\254\r\200\2750\024n\275\345\327\261\275\357t\323\274q\031\027\275\313\020(\275X\014\223;\363\351\247\275\027Nq\276\021:\230\275\265q\331\275\212\205\356\275\354\0235\275\266\243\255<\306\232<\276\2561\217=6\324\265\274K\016\006>\262\303\337\274\023\244\321\274\205m\016\276\301\025\322\275\254\257\014\276\335\342\350\275\211+\n\276k\372\271=\"\264\360\275`}\333=\206e\023=S\261\232\276\r{\276<\222\240\233\274\253\311\240\275d\255\234\274\037ws>D\207\322=u<\210\275y\314)\274\315\232\001=\367\245\245\275\345\247\303=\021\374G\2757\252\270\275\t\333\347\275\204\246s<\323\025\221\275\031v\311\274\214\006@\276xu\202=\242\377V\275P\311\203\273\3623U>\376\251\271=\347\326v>-\273\210\275W])>sG\007\274\333\025\217\274\267k\207>z\375\177:\236\331z\275\362\214\302\275\030H\">(*\201\275n\365\316\274\267$\364<\260\373^<C\371\311\274?\257\010>R\206\276\275Z\324d=\217\315\004=*\356\212=,6\016=\036;H>\r\256`>\224M\313<\246\322\n>\212\024\003=\304\n\375\275[J\202=\217/\270=\363d\236\275\026\323i\275\314\2503<\270\312\346\274\352\231`=\301\037k\276\372~\004\276\272\357\t\276\250\212%>\256\207\241\2751\016u\276Y\264\322\275\340\274\001\274P\247e=\020\204(\276\177\352\264\275\376\373\022\276i\301\263=\311;.;\013>\375<\311\314>\275\366i\022<\014/\372=y\367S=\274;\266\274\265\260\320\275~G\016\276\250K\223<\205\024N\2754y\351\275}\220==\243\032\013\276=qE\276)\354\353\274u?\237<\250G\340<\014\254\275=\231\213\336\275\304\367\267\275Y\247f\276\224\350\324<\364\335\225\275 h\030\276r_\025=&\022\322=\326wu\276=)\260\275}\004\373<\203\317\031\276\021<\375<\252\007\275<%L[\275a\253\252\274\017\305r\275[30>\204\325\265=\321\200\360=5B\311<\355\246\312;\314\264)>g\002\256\275\265\301\352\274v\371\207\275\005\217\321=BV\252=\342\221\246=\031\007\006>\033\321B=\276\217c\275\254\215\027>E\007\313=Q\223\232=\006\2467>\266\215*<f6\035\275.U\324=\007\206Q=T\032c<\2504\351<\215\302\242=\2673\251\275\224\205E\275*[\234\275>\261C>\266\240\303=J\211/=H[\244\274\245\t\317<\214|}\275\3613\203=X\004\017\276\274\221\017>r\222:>\344\220\325=\257U\265\2756\336\302=H\310S\276\325\222\204=\302\2411=\252K\021>\002H\003>;\210-\276\350b\007\276\250\1774\276\177K\023=}!\230\275T\266\t\274\017\376Z\275\340\204^=\374D\266\275\242\265\276=\245\233\003\276/V\276\275\362q\001\275\226j\340\275\333}\322\275\300\014\312\274\324\273!>\030i\021=\231\241r\276\230\277M\275\261\\\004\273x|(>\240\024\303\274\335\360\026=\371\255\026>O\353\300\2752P\375\274T\376\262<PT!>\020S\230\2759\346\007>fp\253\275\223\347\310\275@t\327\274\301[$\276\207\367\220=\262\351\004\276\373:\302\275<\325\017\276 \321\331=cr\\=\214fu=O{\351\275\252$\225\274Q\014\364=\322\266\003>c\361\247\275&Zd\274+f\r>\267e\213=\303 \240\275\363\3718=>j\"=0\264\020\276\377.\022\274A/*=\260\007\n>\3546\t\275\372\264l={\271g=:.\372=\213\276P=u}K>\t\375\226\275TR\037\276i4E\276!\025\"\275\345\370\246\2753\223\010\276\020\274\021\276v\014\352<\364r\033\276Q\025c\275\325\205\022\275\000\350J<\252\"\366\275\263ey\275\262\314\224=k\036q=\260\006\337\275\372\037\236\276Z\033\245\275\035`\324\274\232\252T\276C/u\275O$\022\273\340B\014\275\340\022\230=\366\302\375\275\321\001G\276\222\322:\275l\212U;Rv\202<\2579\002>\337A$>\223\212f\275\336&w\275\212\3723<\350\007\204\275\035\035\271\275\225\366\334\275\360T\177<\2540\253\273\001I\243=Qec="
      }
    }
  }
}
node {
  name: "f7"
  op: "Const"
  attr {
    key: "dtype"
    value {
      type: DT_FLOAT
    }
  }
  attr {
    key: "value"
    value {
      tensor {
        dtype: DT_FLOAT
        tensor_shape {
          dim {
            size: 1
          }
          dim {
            size: 1
          }
          dim {
            size: 12
          }
          dim {
            size: 56
          }
        }
        tensor_content: "\346\251==7Ai\276_\005\347\275\345/\361=K\271\334=\017\021\275=\312\230\303<x\3467\275e\276\236\274\270+\377=\243\316\"\276\2266F=b\314\314=,mY>\007\243\033\276\357\036\367=\266\031\360\274\277\252h\2753CC\276wu>\275\320\034$=\262\322\036\276\305Z\224=\335\302{=\370\016\030\276#z_<\354<\336=\354V\007>\354M\013=\343\207\006>\271\007z<\327P\204=\3771\025\276tV\233=e\004\216\275l\231\215<\003\317\356<\202>\221\275\353\275\340\275DD\330=S]\336\274\270m\312<\366\r\026\275\217\277\363\275\330(\306\275\272\264\360=\344,\202\275 !m=\347Ed\275=;\222\275\'D\213\275\013\004n=\247&\307\274~6W>1\032\253=\007L\034\276\250\241\034=wx7\276\260c\010=\374.\206\274DXN=\253\336\366\275\'\3654\276\227\376%\276/\212A\276\222\341\242\276\264i;<\\\024\010\276\347/\006\276\250\253C=?\222\006>n`5\275|S\005\276=\221\357\275\024\2619\275H\023\355=\304\347\255=]2B\276i\314\213=a\310\315=\315\221I\276\032j\371<f3\321\275\232\300\354\275\302\357\267\273\360e7\2760\225\214<.\'\274\275\322\202\205\275\266\217\365<\274aG>T\326\357<\342#\017=\'\024I>A\303U=V\222\276<\037@\023>lt\247>\216\270l\275\022:<=\261\215\001=\304\362\377=\033F\t>s\364`\272]\276\336\275\205\026\210\276o\277\232<\231\t|=E\303Y>\346z\007\273sn\005=4\212\257=\200^\346=w\317\217\276\243|\020\276\020:x\274\262\370w=F\367\025\2762\207\004<\031f\333<\365f!\275\274\3031=\"\010\006<\230F\222\273\257f\306=\0133\202=U\250\356\274\007\3478\276\371O\276=\331\021=>\314\301\r\276?_d=E\353}<\221\033\336\275T\271\227=3\340\371\272I\2502=K\217\306\275E\232\220=\026\237\216>r\275\351=\305\206\225\275&\355O<\376i)\276H\032\265\275\307\247\300\275\311\310\301\2755\276\225\275\341\252\030\275\245\344\246\275%\3117\275\\=\205=+w#\275\200\371\004\274\316\0213\276\\/t=)\354\305<\221i\240\274\006^\232<\033\332\242=A\225&\274i\034\210\275/ne\275CT\266=B$\222\276\310\332,\2740\240~=\032\332\320\275\272\267\246=%\323\233\275.\2747\276>\306\036=\316\311\334=]%%\275\375\216\254={\250\206=\331\020\203\272y\364\215\275\231\223\205\275\322B\316=W\341\321\275\231W\224\275\243\206\377=\351\031T\274\323\357\303\274\303\371\240=X\342\224\275\255\340%\274\256\274^=\037j`\273;\266\225\275D\261-<b\274\350<{\205\375\275A\013\202\275\240\233j\275y\301\201\275\244\2059=\231\306b\275\341\366C\276~;\232\276\222\242\226<\202a\226=\274P\307>@\273\326;\177\336\177\274q\246\022\276a\274\213=\336(\207\271s\375\332=N\234\353=\203\351\342<\234\262\202\27596\305=\024\310\331\274\357\216x\276\220\222\272\274%\003t:[\022S\275\034z\256=\344\373f\275\303\230\010\276C\274\207\274\316\261\365\275R\346\246=\312\301\374\274L\310\017>\237_r\275\236A\315<B\022\017=\256\357\262\274\200z\020=\227\310\300\275\261\343\223\275\" \200\275\361\257O>\231\n9\275\007\r\034>\372\240\231;o\331\224\275AC\005\276\316zU\275\206*\031=?\017\033\274\2074\013>{M\004\276\340\242o=\002?\336=H\013\223\274s!\266\275\230[\272<\250\303\357=F\034o=\260\007m\275\226\217\251<\r\252\212\275\2513$\276\321\276E;N\340\212=RG\016\276t\236\221<(U\022\275\267\343\243=\354\202\377=\200 /=W\244\230\275\004\353\304\275\3626\230=\336\234\006>)\030\254\275X\226\275<\0241\001\2722\241\035>\001N\273\275\341b\014>=\331R\276x\004\214=?\024\032>\310#\231\276\266Q\006\274\257i\312\274\236P\342=0B\231=\236\323\177=b\303\022>\2143,=6\3651=\227\354\033=\025\257/=\371@\250\275L\256+\273\346qN\276\313V\211=\370\317X\275\035\260E\273\025\2141\276\310_#\275\213\201\333=\203\376m\275\222\271\303=\356\021\344<@\010\362\275J\016\024\276\267\215k>:\321\214=\223\233n\275\023\245!>\331\217\006>a\253\004\275\317Q!\275\333W\255=3*\001\276R\277@\276a\313\245\275:!\025=\001\322\t\276\375\246\344\275\274hR\276\321.\375=@\234I=\235\373\252\275\336\311\276\274.\3701\276P\010h=wu\017>\206\306k> \347\026>\255\352\t>\023N\204\276y\225:\275\2517?\2764\246A>\221\036\020>Gq\214=\370\320\355\273\370a\265\273+\264\225<]V\314=#\320B>^\245\005=2C\201\275\242\213\326<\003L7\276\214\324)\274\006\360@=\336\201N=\376\366A=\360\226\217\275Uy\336\275\014#d\275\244\255#=\272\010\017\276\344\303y=O\215\227=@\3535>\010\343\020>\206s\354\274~6\030\276\353d-\276\014\200\321\275\340\024I\276\311\260\025>\220\263\216\275\227\010\275\275t\313\220<\000\302F\275\320N\037\276O\207\017>\023\376\363\274hQ\261\275\334\037@\275\"W\203=\316\363\017<\027o\355=m\323\216\275Lz\021\275%i\310\275T\371\222;\250\030\344\275\276i9\276+\347\213\275Ek_\276\325\024\353=\231\025\255=\004\267\343\275\276\316\234\274\256`V\276\277\337\253=\232/p=q\214\365\275>\231\243\275\311\224\000\276\322\262\265\275\236g\017\275\211\232|<\230\234\355\275\227\325\244\2745\327`\275\213E\177<\242\370\016>\327\346\201\274\327{\336=C\276\324\275Y\203J=\022/\235\274\364:\003;\n\371\271\275\342\027!<\312\030\364<\265\2341\276!W\277=\200\201~=^iJ\276\353\017/\275/@\265\275e\310,=\363\022)=\3728\014\276\355\005|=b2F<\323\0352>!\331\353=\206>|\274I\026==\264\214\224=\273-\361=\033D\220=\266\272\021>\202\333\247\275\266&\030\273\265=P\275\241-\262\275V\344\204=\235r\253=\275g:\276\245CD\275C\324\340\275\036\372G=\342\201\321=F\274R\276`\247\271\275\222\315a>\210\331-\276\276\006\321=M\364\257\275\250vC>*\027\372=E\302)>\362wa=\271G\002\276\351\006\353=HM9<&\346\230=39^=\026\305\204=\231\224v\275P\213\354<\016\177\246=\262 \361;\304XF>k\215\265\275V\002{;\nS\\>]\360\023\276\240e\237\275\223\307\034\276h\340\001>_N\210=\267e(>9\213\243\274\025\203\270=A\314\317=\200\214<\275;f%\275\317h\304\275_|>\274\253\235\363=\362m\264\276\205{+=9y\005\2739\233$\2763\023\241=fa\340\275\232\224\370\275\220\350!\276\211\313u\274\341\210\230\275\202KE\275\314=\252=&}\245=\032\337\317\275qJ&>\315\021z=\363\035b\275l\365\250\275\247R\304\275\002\"`\275\np\353\274\364[W\276Q\242\271\275\360.\374\272\0165l>a\201J\273\320\305\314=V\030\332=\034\261\027\276Ib\314\275\025\260s>\007\217\375\275;G\242\275<H\373=K\240\260>,\241\267<\340O\006=\t\313\317<}Q9\276\010\302\032<ih\376=\324\023`\276\267\351)\275K\204\034>\002A:>\325\334\221\276\337\025u=\242\301\370=\001\324\324\273\351c\n>}\2133>3\033\370<\203\341m<cu\352=\310\246;\276\201\207\301<`\222\035>\372X\253=\036\334\333\274\243\n\260;N\255\036\276&\275\325\275$\341p>xJ\237\274\344\376w\275cP\037\275,)\026\275A\310=>\020L\334\274)H\034\275\262\022a=\014\r\277<\'\345\'\276\250\256,>\365R\267\274\325\207\014\276\035\337q>{i\274\273h\332\242\274X\240\353=\016\007\224=\255\225\324\275\017(\016>\027\016\214\276m\300\242=\322\353\010=\336\325\321\275w\355\027>\031\332\333=\257\360\230\275,{\223=\034o\203=\336\276]\275\203\211\212<f0m;\352\017F\276\301\273W\276$$\225\275gM\236:3\215\177\275\267\254\245=\211\365\217={0\r\275\216\223\246\272n\255l=P\223\016\275Z\013\205\275:\313D\275\347\271\026=\376i!\276\363-M={\237\271\275\262sK\276q\252\330\275\017\231\214>\321s\207\275\313n\010>.\314\374\275\365\342\326\274\372\377]>\322\034\270=\251gS=b\312\302\275m4\211\275z\374\305\273U\307{>X\330$\275z\300\200<\350Le=fD\272\275\020al=#\273\227=g\006\304\274\245\371\032=\002*\007\274\337\352\347=FW\314\275c7\205\276\367\340\225<\020xZ\275E\027\">\345\335\332=^p\355\274,\246\263=\024\325K<\230\370\203\274\226b;\276\230\377\340;;\270\372=\001y\261<\212\352\305\275\224b\210;BX\023>N\032\246\274^\377\330\275\252\003\215<\271\251\202<\327\323{=\244j\372\275\223\311\035\276\335\304\370=\023\2522\275!\2605\275\271q3>\262P&\275)\337G=\352\230\200\274\357\377\223=\357\371\350\275\257\256\246\274\022\372\341=^E\372=w\371\010\276O\027y<\234\277\227:\216o\3318\271\256\316=\206J\250\275\207O\265\275\340\362\000\276\024U4=\023\000\360<\001\014\225\274\204\362A\276MP_=\017kT>;\201\306=|}\024>\262\247\001\276\330\271`=wK\224\276\303~\221\276\231\242\022<N\354\005=#\'c\275"
      }
    }
  }
}
node {
  name: "f2"
  op: "Const"
  attr {
    key: "dtype"
    value {
      type: DT_FLOAT
    }
  }
  attr {
    key: "value"
    value {
      tensor {
        dtype: DT_FLOAT
        tensor_shape {
          dim {
            size: 1
          }
          dim {
            size: 1
          }
          dim {
            size: 56
          }
          dim {
            size: 12
          }
        }
        tensor_content: "\372.\225=D\301\275=\027\346,\275\005U\317\273?pQ\276\003d\007>\204be\276\021\010\236\275\010+*\275\355\250r\275\245\306\217\276\250\177\305<\272Z\247=yX\033>\024\207\262\275Y\375\334<\370\202>\275K\002=>z\251)=\035\312\257\275\232\321\340=\016\275p\2741\332\323\275/\005\031>D\302\035\271\305\223==\221\330\234<\306}\340\275-\357\213\275\030F\340\275\3058E\276G\\\304\275w\345\233=\252\026\264<\220R\200\274\215\264\006\275\277\224\235=\216\025^\276\230F*>\305\n\333<\253\306\257\275\310\336\232;\020`(>D\315\332==\251\317\275o>\337<\213`\025\275OzJ>\242.\316\274\370\337\257>{\342\351<\202\314\311\275\264:\'>\347\237{\276iF\025\275\200\215\030>\016/\303\274\275^\211>!\332\211>-$1=\267d\277\275\247d\332>\373*e\273\352\335,\275\312d\256=)\221\242=\203N\204>:\001P=\212\244\226>VH\n\276.a\023>\004Q1=\204\210m=7\023\032\275\224\365\210\275a\221)\275\246N\256=g\224\216=\267\342\317\271\336\360\251\275\243\337\244\275\324\256\023\274\214\330\232\273)\222\207\275 \037\375;\177\362D\275\241=\202\274{G\020>cU\361\273x\322\244=]o\252=\036\023\376\275U\r\262=gA$\274\247B\"\275\267\227\t=\"\253\241\275eu\277\274e)1=\325\r\363\275\322\322\000\276+H\305=\305s\205\274\257\205\226=\225\312\020=\211V\237\274L\353\007\276\351\036Y=\374\347\014=\275)\204>\262Ql<l\376\214\275\2650C\274\256@?\275\030\343\373\275\351\314\206=\313z\325<JIr>0h%\276\204\264\236=\364(\233\274\225\t=\276\005\210\310\275YO\205=\212\347!<\250\032_\276\231]d\275\013\233\016>C&\227\275\240\264\263=1S\010=\\LY\274\352\353\253=G2\216=}\326\036\275v\222\341=\005<\243=]\330\250=\rB1\275n\300\316\275\233ID\275=\346{=\"]\n\275u\376)\276\216\255 <\303\353\265=\022J-=\n\003\340\274\305q\272\275\207\360\372=\345\311b<+o\201<Fm\031>\221i\020\275\313\313\231\275\370\266\347=\334\303f=\232\227\325<\025\363j\2744\276\020>#\340H<\"\315\035=\224\016\231;\010b\177=\017\313\224\275n\3561\275\372\255\362\274\317;\025>\2255a=\353S\255\275k \003\276\213\255\202\275\265\002\n\275\264\214\205=\362\342\026=\246\276\235\275hc}=\334\240\301=\373Q%\275`|\236\275\312\277d\276|Y\"=\026:\317=,\222\365\275\007xr\275\266\303T\275\023N\362=\323\220\024=\016\035\367<\203\234\354=\301%S\275\037X\255=\333\205\324\275\211C\311\274^\323\203=\\\"?<\354R\222\274\252,\274=\020\003(\275\267X\024>P\310\225=[6\256<&h\003\276\330\353\336\275\321?!\275\2224\n\275\322\"\206\275\256\235\014>,[p=\324q\010\276\272\026\262\274\377\250\274\275\352\341\224=\374\263\261\275e\'&\276\300\032\366=B\226I>\030\r7\274\033<\337=\006\357\">\036\372g\275\243\256\006\276\342X~<\351\370\306\275\272ly\275\363\223S\275#3\263\275\314\177)\275\023\240\230\272\003\027\027>\364\036\001\276\346\271\260<\006\0335:\346\316\207=\t7\023>\037\330\235\275v\225\025<}\215N=\302\257\243\275k7\330=q\017\n\276\361s\307=\357(]>\243\235\016\276\026Y\373\275pK\013\276\262\030\277\275q$\r=\0004\037\274|\037x>\333lf\276kF\303=\215\237\231\275\240\352Q\276\017\331%=\036a\373<OX\"\2756s\224\275\025\326m=\274~\034=.\333\330\274\234.\027>b*6>\307\372\325\275Y7&\273\017C2\275\340\346f\274\t\264\275\274f\242\224\273\233\026x<\325,\204\275\037Y6\275\010f?\276(\270\013\276t\303\301<\366K\372\274\205\350V\276\023\320Y>YCg>/\240\006=\202\274b;O@A<\250\301\361=\370\361\220<kn\354=r\'\201\276\3465\205\276\315\320Y=\300\374f\275<\3061\275\\\'\231\273\376\375\241=\365\013T\274\374g\020>\345\332^\275\313\353\302\275\2579\010\276\346\341Q>\335\233{>|G\241\275\304\017\\\275d\r\373\274x\204\317\275\023!_\2749 \361\275\362\021\370\275I\246\245=\262\020I\274\304M\377\274]Vi\275g\357\304=G\310\206\275\322^\302\275\332\025\273<`\307\301\275\2135\r=O`\007>\221;\355\274\252gW<\2417\312<=H\236\276\305\341\'<t\215\347=\257^\212;i\370\275=:\211g\276d\303\366\275\353\375\312\275\013GU\275\352\370\032\276\252\362H\276 b:\275\360e\030\275\3261=\276|\201\317\275\307\305\026=\255\321\272=\362=\371<\357\r\270:\356\025\006>\231\302\266=\254!F\275\004\036x=\320\377#=\266d\212<\311\237I=K\271\024>\3555\342=M\351\222\276\201\271\231<\002O\016\276Zd\035\275\256\361X\273\316mt=\222<\027\275}KS\275\257\0371\275\022\272\331<g\372\301\274\226&C>\t\207\347=\265\361\230\275\222\337\234\274?\233\242=\025\245\323\275\224\301\370:\231\215\227=\264\216i=5\330p>v\034\240\275\230\254\300<!0$\275h\004e\276\215\207g\276b\'\341<O\206\357\274\206\221\357\275\304rx<\373u\377\275\036*\025\276\370\375\t\275d\372\006\276B\305\202\275\231U\270=\017yH>=\206;\275\333\347\213=\275|\361\275\353:\034>9\223\003>\"\tm;\037g(>\\\2166\276\375\254S=\225\247\364\275\363\014\000>o\3471<@\177\n\275\203|\336=\335\252%=\036Z\312\275y\307\314\275($\216\275\204\020\320\274\327\214L=\242\0302>\325\322\234\275\260\240o=\304\275\335=\216I6>\312\266\262=\373#\251=\005Q\345\275\257\031\002\276\202\266\304\275\200\204<\275t\234\246\2731]+=\3365\013=Wbm\275$VM\276\317\014\300=nB\214;\025\311\241\275\315\352\360=.\235\003>\204i\024\275E\252o\275)\373\267\275\332\344\252>\200\023\024\276\240\037\261>9^g\275\026\323\n\274\025\225z=\253\013K>\322T/=2\221]\275\265\223B\276e\316*\275k\003\036>\251\253\223<\334\253&\276\0300\202>]\007\030> \010\342=\226\315 \275\010\001\277;g\243F=d*k=JV\211=\364\347\230\275\001\315\301=\214\2428\274\t\217N>K\200\002>f\344\\>\364\226\013>\332=\224\275\023\025U>\020\306_\273\216\353\224;9\007;\276J\340\212=Q&\206>;\220\345=\004\231\231\27436\315\275`Q\333\275\275x\227</G$\276\221(\021>\024n\242\275q\001*\276)Wl\276\330\361\021>\367\231e>&\267,>\276\350\026\276gj\014>\265kO\276\314Z\244>\215\3703<\222\231+>\311{\252\275\024\220\204=\371$\312=\263\214\220\275\320}L\274Ph\303<$f{<+\200N\276X\307\220\275N\000\312\276\212D5\276Z\214\213\274 \315P\276\335T<=2+}\272\222m\274=%;\221=\272M\207\276a\034\301\275\016D\026>\315\377\340;\362\240\264\272\326\253\001\276\345nP\275;\204\016=\343\301D>\226\031\225\275Fx\235\275\350\331\240<\365s\004\276M\r\222=hds=?S\314\275\356\313\211<\354{L=V\003c\275!\344\347\275\236$\213\275\233\035\342<1&\210=\332\205\004=\211\014\305\275Uk\223\274\365Y\263<>\037\347=4\245\213=\340\250\034>\271\204\264<k\245\r\276~|<>\240\'\206;\320x\243<t\223\r> m\210\2759q[>\n\363-\274\026i%\275\023\217\376<\257\252->\022\007a=\263G\305\275\230;\"\276\210\3024\276\242\320a=:=\250=4\304\261=\236B\316=\377\362R<u\032\216>H\210\273=s\234\371\275\016\313\264=tF#\276\350\331\312=\260\205\212>\360\362\342=\352;\256;`gl\275\260^\202\275\364\356\017>*\200\202=\031\274\253=\246\272#\276,)\310\275\303\r\332<\200_\210=\346\317\211\275\264\350\316=\352a>=\215\001\342=\342\3224\275\323\331\207>f\275\033\276\236\206F>\262\305N\275K\356l\276b\031\205\272#&\034>\265S\254\275\213\325\222=\022\272\345\274\375_r>\'%5\276(\312\252=X\317\027=\207\204\244=\265\327,\276\333\204\004>\371[\013\276\255\004\361\275\020\367\261=\236\320\253=\332j\230\275\303\316\302\275\035\356\001;\342?\261\275[%\243\274\025\204\227\276e\362\241=\320\312\235=Ld\316\2754\336y\276\355\300\020\272s\"\265\275\345yv=\227\020\343\275q\355!<?\200\321=#\024\025=\247\316\237;=\356\202>,t\022\275\325\336\310=I\037\204<p\202\n>\321\221z=\220j1\276\307\323\032>zg\234>\340-\353;\r\362\367<\177\237\001\275\001+\310\275u\343+;b\033\264\275o\310\327=\310\224\334=\354\274\224\275\r\212<>\363@\356=\n?,\275\313\177\255\272Q\320\030\276\336\326\n>\223\230\013>0\005\335\275\317+\035\276C-\324\2758\\#=\316\n+\275\214\272\202\274m\034\231\275\343\000\216\275\2103\363=\3379d=\343\036Y>~\256\255=\3378\351\274\316\2256\274\226\255\270=\222\322E\275\001\254\265<\032\236\205<\001\215\337\275\2208\250\275GI\307<>\372\322=\272+\204\274\226\256\005\275\254\354\250\275V\330\372<\322\013:\276\265\t\214\273\241Ci>$\333\247=#k\t\276\377?K\276\315\021\240="
      }
    }
  }
}
node {
  name: "f1"
  op: "Const"
  attr {
    key: "dtype"
    value {
      type: DT_FLOAT
    }
  }
  attr {
    key: "value"
    value {
      tensor {
        dtype: DT_FLOAT
        tensor_shape {
          dim {
            size: 5
          }
          dim {
            size: 5
          }
          dim {
            size: 1
          }
          dim {
            size: 56
          }
        }
